[PAD]
[UNK]
[CLS]
[SEP]
[MASK]
!
"
#
$
%
&
'
(
)
*
+
,
-
.
/
0
1
2
3
4
5
6
7
8
9
:
;
=
?
[
\
]
^
_
`
a
b
c
d
e
f
g
h
i
j
k
l
m
n
o
p
q
r
s
t
u
v
w
x
y
z
{
|
}
~
£
°
³
´
µ
à
ç
è
é
ë
î
ï
ó
ô
ü
ō
ɴ
ʀ
ʏ
ʘ
ʜ
ʟ
ά
έ
ή
ί
α
γ
ε
η
θ
ι
κ
λ
μ
ν
ξ
ο
π
ρ
σ
τ
υ
χ
ω
ύ
а
в
е
и
й
к
л
м
н
о
т
ц
ь
ڰ
ڿ
ۣ
இ
ᴀ
ᴅ
ᴇ
ᴋ
ᴍ
ᴏ
ᴘ
ᴛ
ᴡ
–
—
―
„
•
…
※
‽
‿
─
◕
◡
✧
〰
づ
ヮ
ヽ
️
＊
･
ﾉ
ﾟ
￣
📝
##h
##o
##c
##k
##e
##r
##s
##u
##p
##d
##l
##v
##y
##b
##i
##m
##t
##a
##n
##g
##w
##f
##q
##x
##9
##8
##1
##z
##0
##5
##о
##й
##7
##2
##3
##j
##4
##ç
##é
##￣
##ᴏ
##ɴ
##ᴅ
##ᴀ
##ʏ
##ᴇ
##ᴋ
##6
##´
##и
##ë
##ô
##в
##е
##т
##к
##ᴍ
##π
##έ
##ρ
##ο
##χ
##α
##ν
##ά
##à
##ε
##ü
##î
##ó
##λ
##η
##ύ
##τ
##◕
##ヮ
##ω
##ί
##σ
##ʜ
##ʀ
##ï
##è
##ō
##ι
##✧
##ڿ
##ڰ
##ۣ
##°
##ヽ
##ᴛ
##ﾟ
##а
##л
##н
##ь
##υ
##θ
##μ
##he
##in
the
##er
##ed
##ou
##ing
##nd
##at
to
##is
he
##es
##or
##on
th
##en
and
##ll
##as
##ar
she
##ck
##it
##an
in
his
of
##re
ha
you
##lo
##om
be
##ly
##ow
##im
##ut
it
##et
was
##ot
her
##le
on
##ld
##lock
sher
sherlock
##gh
that
##id
st
##ve
as
##ay
##st
jo
re
wh
##hn
john
##ce
for
##se
him
##ad
##ent
##ur
##ver
##al
##ith
had
##ct
##ould
with
##oo
at
##ght
##ir
##ion
##lly
an
##ro
##ch
fr
do
##ee
but
not
##ak
##ft
sh
##her
so
li
my
ne
##ain
##est
is
me
##am
##pp
##ic
mo
##ight
##ore
kn
we
##il
up
##ack
##ess
##ill
##ook
##ust
##ie
whe
out
what
##us
al
##ome
int
##out
this
##ant
have
##hing
no
ch
from
##ab
##ally
su
would
look
ab
##rou
le
con
they
##one
did
sa
##ri
##art
ex
all
back
##ke
know
go
##ard
just
##ind
##ers
could
sm
ho
de
when
##ect
fa
wor
if
##ag
ag
hand
molly
te
##lf
##hed
ey
one
un
##ter
##own
##ul
##um
there
been
##ven
##ry
se
ro
##ate
into
##ive
your
##ra
fe
##way
##all
tim
##au
##cro
see
lo
about
##ist
br
man
##ere
##ake
##ation
any
or
##ast
them
##un
en
like
then
sp
can
##fore
##ade
##urn
qu
eyes
over
before
##ff
how
were
said
##ink
##and
##ong
thou
wat
##ide
##self
pl
are
##other
too
##ig
po
com
again
##pt
ever
time
co
some
down
now
##ile
mycro
mycroft
##ood
get
##ked
more
##our
##ous
ar
off
##ice
##ps
##ame
who
by
even
##ort
than
##per
don
didn
##son
want
##itt
##ick
gr
##dd
##ving
head
gre
##pl
##ac
##are
##ther
sc
their
##round
##sed
##nder
##ved
##fter
##op
pr
after
##ound
##ge
##ite
turn
##ine
##able
say
fl
still
well
som
somet
pro
need
will
bec
##ru
way
every
tw
##ear
##ath
bo
##ase
only
##ling
other
think
##lm
clo
##led
##ud
face
##iend
bl
thought
should
around
mu
##ting
##th
himself
##ss
##thing
fee
right
##aking
dis
holm
something
door
##ment
holmes
##fe
##ward
bre
##ause
never
ll
rem
##ated
friend
##pped
##air
det
sl
im
am
che
##ious
day
##ull
##rough
going
through
long
room
##estr
looked
##ery
##ue
away
##ure
lestr
##wn
lestrade
##ence
##ks
ve
cont
##ies
dr
fo
has
gl
let
much
greg
thing
##ity
arm
here
mr
##pe
di
##ctor
fir
cl
watson
##pr
under
##eep
##lt
##ance
because
##ich
mom
em
##ary
##ened
moment
##ib
fin
wasn
kne
good
##med
why
##king
##ach
##ass
two
bet
happ
res
wa
##ective
op
##ittle
little
us
asked
##ady
##ace
##ang
pe
##dy
first
where
got
tr
##ough
bot
hel
ph
smil
##ered
which
vo
##ip
##ning
##co
start
##ways
##we
cr
##ently
hands
##iss
does
##ave
made
app
##hes
knew
##ily
##em
sur
being
come
##ds
make
very
left
##xt
tell
detective
sure
own
put
ad
take
##ves
##age
really
des
##gg
while
always
##ise
##ful
mrs
##ap
doctor
pre
##qu
##ried
##les
help
call
att
took
per
##ions
year
brother
##ched
wr
##ree
voice
##ol
yes
##int
felt
ins
##pect
bit
wal
few
act
love
cle
##ish
mind
turned
bed
##ose
though
##ather
once
blo
##anc
car
##ually
##ild
life
both
##ied
##act
##iz
##ep
try
another
##be
real
may
part
##uck
##cc
feel
pull
smile
find
##ised
mor
looking
new
##oun
##ople
people
oh
care
##ars
##ared
couldn
##li
inter
cur
wait
##ating
##ever
flat
##ince
last
##po
case
beg
##erson
ret
##lie
##akes
spe
str
##ens
##get
##ire
##umb
##low
sw
work
##ci
anything
beh
dec
##ark
enough
pa
sn
told
##arly
##igh
side
hud
hudson
##aring
next
##mo
most
##row
##used
cour
toward
##orm
##ching
el
##ully
##ea
##ned
sig
lau
end
##ness
##less
stre
unt
things
sho
came
home
heart
since
nothing
##dded
ple
set
ob
old
wom
everything
night
hold
without
gi
##sw
min
vi
doesn
tal
ros
keep
answ
phone
##so
years
words
##ans
ste
gu
sil
finally
until
sound
cons
best
against
quick
found
course
##ory
##ents
conf
##llow
mat
small
##ne
##ont
light
##ult
inst
open
##ced
behind
table
smiled
##most
rest
sle
rosie
wanted
feeling
##fully
fam
##pping
almost
woman
##ha
##gn
stand
ser
##ready
##ny
already
id
cor
breath
slight
##itc
soft
those
contin
underst
##ped
##ert
read
lat
yet
##ying
pain
rel
child
##ord
quest
##ub
also
##hen
fing
##ably
##up
play
##ner
##ene
prob
hard
went
##ention
trying
war
supp
might
sat
flo
wo
##az
##press
mary
eye
front
##ical
##tered
##ible
sto
inf
hair
better
person
minut
##ering
har
towards
##iet
##ately
says
return
chair
wouldn
body
##day
each
ass
##gether
##aught
cat
##itting
sor
doing
seemed
##ations
quite
point
ca
same
deep
mon
started
##ple
##uff
someone
bloo
looks
compl
ok
our
stay
done
slow
repl
street
hur
##ng
together
else
belie
aw
clos
sit
sim
surpr
taking
##ween
run
hadn
diff
between
arms
##airs
mur
##ls
many
##ins
mean
later
mar
follow
##ual
inc
sorry
seem
##cond
ke
actually
maybe
##ained
##dden
##emb
inv
lips
sudden
name
second
plac
kitc
kitchen
show
nodded
past
saw
met
place
sk
thank
needed
close
##ange
##cept
understand
##ured
quiet
##gs
ev
gave
##fort
grab
##ically
pat
wee
##ell
##ool
least
##cross
##iously
tea
continu
conc
across
dist
kiss
heard
hour
stop
tru
tried
##os
##ail
quickly
##ys
leave
##der
slightly
##ished
glanc
##ty
three
ent
such
dark
give
acc
rememb
##ason
soon
##outh
fact
##ense
must
##ia
floor
whis
johnny
##sp
##ither
poss
sleep
pick
##ction
days
ir
young
making
ang
##sit
##no
fall
please
far
wind
##ply
##ten
##end
expl
stood
##if
having
god
sighed
##bed
ra
##ely
rec
##ached
##log
##to
##essed
seen
mouth
sitting
##ined
question
##vers
lea
okay
these
##ings
##ided
minutes
meet
dro
hum
tra
##ates
friends
par
##ret
##av
happened
##ier
##cked
##ital
kill
getting
##ted
wonder
gir
shoulder
adm
##red
expect
laugh
half
exc
times
miss
herself
cas
gone
wall
reg
##room
crim
world
es
pulled
##ank
##uring
fine
roll
bu
list
pus
month
ear
yea
isn
eas
chee
##ouse
reason
inside
family
tri
exper
anyone
lean
##ble
allow
yeah
ind
rather
##ping
fingers
probably
##ening
called
book
##port
##ons
its
coun
walked
slowly
sigh
won
wrong
suddenly
la
believe
gen
##ndon
##igg
coming
death
mother
express
hear
knows
unc
london
emot
add
onto
dri
comp
used
move
opened
differ
##ract
prom
chest
tre
air
bro
vis
##ead
##aken
able
hell
##ertain
hope
coat
ign
moved
ref
hosp
alone
held
plan
hospital
##ream
tears
perha
perhaps
##aker
##side
mem
chr
instead
##right
##aged
dead
stra
sol
boy
replied
##ift
forward
attention
harry
cou
##ial
##edu
morning
##ides
##ired
asks
gaz
##ces
##ored
fur
##ix
notic
hurt
use
##its
sec
house
ter
##whe
##ief
cold
stopped
window
lot
mis
##by
ask
##ung
gently
however
everyone
cal
pres
closed
interest
##el
desp
holding
spo
complet
matter
talk
answer
ac
bag
christ
grin
bes
med
##jo
##ken
perf
shook
turning
breat
##bo
thro
##ili
certain
began
##ising
break
stairs
idea
ago
bus
##hip
fig
def
taken
##app
##idd
warm
blood
hu
along
cut
##ooper
feet
expression
happy
softly
throat
swe
realiz
obv
enjo
dra
sort
knowing
consid
tou
##rugg
waiting
coll
silence
baker
cro
dam
sent
##cus
less
watching
kind
##cing
##rect
water
comm
great
thinking
appear
hours
bad
dedu
low
##ased
story
mess
takes
word
##iv
either
##bing
black
different
shut
jum
##ged
##cket
##antly
kept
father
rus
##ian
##ures
red
hooper
men
whisper
mum
today
standing
bare
tight
smiles
pass
cho
continued
months
decided
inform
##cess
##tle
##vered
lost
##rupt
near
##ches
##uth
girl
##oud
watched
prot
entire
fill
seeing
fun
##empt
pret
viol
mag
full
makes
frown
alright
##arty
true
##head
meant
thre
##icul
chuck
coff
mori
abs
pocket
sch
shot
##anger
occ
##ife
##iting
short
pur
##ren
form
seat
turns
remind
longer
resp
moriarty
cup
reached
exact
press
##ph
disapp
bab
ext
smir
comfort
whole
##ject
imag
leaving
##ton
blue
##iness
del
attempt
##where
hon
squ
##rought
cheek
brought
high
##ict
##ows
living
myself
glass
pol
gaze
aff
##ips
ready
despite
cre
bring
gra
top
##iment
##iding
saying
sometim
immed
remember
immedi
closer
##zz
tom
##ories
appro
##ited
week
noticed
lay
reco
whatever
known
##ibly
##ress
eff
pri
nods
watch
forg
perfect
lift
dou
mut
norm
running
cases
calm
gun
##ience
finished
cab
nice
outside
check
school
within
##mas
begin
speak
exactly
ed
##fa
##ern
sever
eng
thoughts
straight
##ient
nearly
working
##que
##ister
##irt
enjoy
daught
##mb
chang
arri
clear
text
foot
walking
late
##assed
sold
char
inspect
carefully
sign
##ingly
##ises
shift
sometimes
##lem
job
##ional
paper
caught
change
worry
bur
feels
pulling
four
pal
##mm
tone
clearly
mus
reach
walk
ground
##ipped
stud
neck
##ility
given
quietly
wra
##ative
immediately
dad
##ax
loved
sus
bedroom
##cially
##aining
eyeb
ant
yourself
anyway
eat
##use
##mate
##na
sub
af
land
##osed
##la
##oring
sofa
apo
##ash
##als
##using
tem
seems
barely
during
sy
##erv
chance
dru
convers
dem
av
sally
##ains
offic
simply
daughter
22
moving
placed
espe
coffee
##my
##more
##ghed
##pond
especially
##sing
##ident
swall
bloody
surprise
glanced
food
fire
ring
rub
sense
deal
stared
anno
posit
become
empt
usual
secret
free
box
returned
numb
sing
##ov
emb
je
step
managed
respond
christmas
five
pie
##ush
drink
obs
victor
completely
##part
heav
eyebrow
jack
##ging
##ets
col
adv
baby
221
loud
fav
danger
##land
react
ord
followed
spoke
appar
talking
supposed
surprised
conversation
bar
notes
brief
relations
honest
several
uns
din
human
inspector
anymore
import
desk
situ
raised
##vel
live
##oney
bright
blink
murder
rolled
hor
anderson
clean
information
big
trou
wife
shaking
##itted
safe
self
donov
crime
draw
whispered
scene
beside
staring
upon
lear
laughed
children
possible
donovan
added
sad
##een
thanks
irene
apolog
eur
##line
state
hall
##ection
usually
steps
##ove
##iff
smiling
parents
hit
blank
army
truth
flatmate
##cial
##ho
##ors
often
stepped
gas
gro
lar
##ts
white
fore
shar
##night
relie
##amp
lead
##ters
##wor
##ford
stro
##usion
shoulders
couple
gigg
office
others
trust
giving
picked
mummy
paused
##enc
##ics
##rying
##itely
clot
comes
corner
##iliar
empty
sir
##aw
##eng
##ding
grow
guess
##ames
prof
accept
fight
hus
ty
##orn
requ
##iled
sun
sugg
feelings
further
suggest
ran
##erm
alth
exp
moments
although
mil
opp
shout
##ended
certainly
violin
brain
bother
fell
strong
older
lab
silent
figure
normal
relationship
situation
nat
passed
##ition
##tering
problem
filled
doub
er
sister
##ane
fear
##aced
##lia
##umbled
expected
broken
clothes
bir
mist
nur
pay
wound
grabbed
kid
ma
dress
weeks
mention
##ones
haven
stom
lip
murm
hers
gets
sco
##olog
putting
221b
cra
##aint
kno
dear
space
happen
trans
interrupt
die
odd
sick
##ses
##te
scre
telling
questions
skin
cross
eurus
comment
contro
focus
reading
apparently
##read
##eth
needs
imp
##lier
##iling
angry
build
sight
tired
##band
##apped
##nding
wants
sett
answered
familiar
obviously
large
gest
line
mas
##idence
fair
worried
begins
playing
esc
defin
avo
jim
##aut
##ison
note
smo
pref
gift
position
hung
mine
##ug
##onse
##amed
leg
aware
leaned
mate
##ming
nose
truly
recogn
ele
wed
##ber
##ustr
except
##rugged
pu
##ues
##arr
realised
earlier
easy
gener
early
##iew
scr
possibly
path
yard
##sh
##ape
hesit
spent
##ously
##olut
event
pushed
dinner
burn
pan
thr
##ares
##ities
##cei
save
##icked
proper
##ize
curr
shock
husband
mi
ten
##ination
##issed
entered
##ances
particul
breathing
touch
##ror
##yed
drag
response
important
lit
lying
goes
##ists
meeting
sweet
pretty
swallow
20
win
##how
##sy
##ler
##imed
##stairs
dropped
inde
demand
pub
wearing
somehow
disc
deser
leaning
count
threat
changed
stomach
mere
pack
##kes
##isted
allowed
promise
hang
##ires
exam
died
catch
single
contact
##liver
mad
##elia
evening
assum
police
number
victoria
dream
##pers
##du
notice
sear
sounds
##work
apart
pract
##ze
##ines
##ign
definitely
bene
money
shirt
aren
simple
compan
ut
##cious
##ining
prep
##ount
bow
gri
wit
##de
const
medical
ce
fre
shrugged
weak
alive
emotions
missed
frowned
hot
lim
rid
ur
mob
above
sees
##unt
grim
##ized
sounded
forehead
control
##lves
beaut
reply
frustr
likely
thinks
##body
son
wish
stup
legs
##ulting
lock
phot
confused
invol
hello
disappear
wide
##ision
##icult
##unch
direct
correct
glancing
birth
pict
##lc
##eren
##anne
##irc
##ager
agree
shouldn
prev
finger
difficult
married
present
piece
huff
bel
asking
##aled
##ants
uni
spot
scream
phys
##iddle
##rin
##ages
amelia
explained
grinned
hide
##iot
repe
##enty
worked
##ude
class
waited
squee
##rit
##ssed
tor
reve
##ries
handed
became
emotion
obvious
effort
wedding
bored
circ
fuck
##gu
ones
neither
glad
answers
anger
visit
dest
pink
sens
##ray
##orrow
##ird
whether
capt
occas
##ms
post
remo
serious
invest
soldier
building
stupid
mot
test
##io
##aff
throw
une
causing
appeared
forgot
edge
drugs
##ipping
##idge
stick
seconds
placing
crimin
broke
terri
screen
bra
luck
inj
##ilt
worse
order
detail
wondered
priv
sharp
mobile
aut
bart
game
middle
rain
##man
##vering
wrist
nor
##ey
smith
rose
pressed
following
whispers
regard
busy
entirely
card
##cri
recei
forced
minute
gent
loo
nerv
round
##ond
##erg
stuff
##aling
weight
crack
continue
arrived
jacket
bath
##br
##ishes
##ster
rele
welc
cond
using
places
memories
realized
palace
bat
none
wid
yell
##raid
determ
fold
##pected
strange
admit
relief
ah
fix
lack
ment
ris
sou
##cu
tonight
##esh
##vern
gotten
sighs
law
afraid
flow
lap
six
##gr
##arily
dev
##ected
somewhere
art
##itten
##ledge
firm
pointed
incl
absolut
trouble
file
shakes
agre
suppose
younger
cheeks
lapt
lifted
eventually
##leep
strugg
asleep
forget
##ctim
shad
means
suff
##acing
idiot
##board
choice
beginning
due
pot
##bs
##aked
smell
worth
enc
scar
letting
victim
consulting
experiment
weren
##oming
intell
suit
conn
##ively
brit
track
relax
##ency
cu
fast
stri
conv
unf
unable
process
pleas
keeping
distract
magn
date
fil
wip
##ring
##ric
##iful
##ony
##lex
exha
amb
starts
appre
memory
damn
reaching
obser
honestly
cam
tu
wood
##riend
##set
covered
helped
ended
daddy
investig
oliver
##not
##atic
##ishing
##ime
rep
suic
##gged
curls
concer
killed
interesting
doubt
tall
##ah
##velo
##selves
govern
brown
writing
shoot
concern
##ific
books
tomorrow
laptop
ally
lady
##lic
##fast
##cks
##omfort
ann
##ushed
##wards
opening
personal
explain
uncle
favour
mike
pow
##gue
dism
disco
##ments
impo
desper
serv
continues
listen
business
##ength
##uss
fault
prov
remained
glance
pale
stret
sits
couch
besides
wrapped
scoff
equ
##alth
liked
chap
arr
offered
bott
surely
understood
indeed
beneath
pen
ru
##oint
force
##cted
##chair
unless
dressed
cla
pulls
##lessly
remembered
missing
music
gather
pill
sherrin
shared
##ield
hoping
##astic
result
stayed
counter
exhaust
sherrinford
kissed
nar
discus
speaking
pushing
tries
ignored
squeez
government
cass
hate
##yond
beyond
##ste
lives
##uses
nod
super
dire
surround
attack
special
message
imagine
beautiful
mir
pour
##wh
itself
ange
##illi
ways
embarr
profess
agreed
bas
cul
##iny
hey
##oth
##urs
necess
wanting
doors
knees
reaction
bull
und
##kward
##ded
##fied
shop
train
starting
awkward
puzz
led
stories
aside
brilli
scot
finding
confir
support
excla
groan
avoid
ble
##00
##ormed
reass
##unately
grey
irrit
breakfast
shifted
psy
##ale
##cking
beat
stated
##aded
##ices
teeth
grins
impress
shoes
sleeping
regret
genu
muttered
heavy
settled
ears
eating
##par
##ior
##zy
enter
afterno
boys
understanding
evidence
blanket
british
narrow
fas
##wise
##het
##lla
headed
key
grabbing
kisses
genuine
uh
wake
##aps
##inary
##ett
##cho
careful
snapped
satis
laughs
afternoon
fut
##ius
hearing
##omp
states
loc
final
admitted
consider
comfortable
absolutely
dry
pair
##cul
##light
##ench
##lled
shru
team
##ump
grate
silently
lightly
incred
experience
appreci
concerned
jan
mood
sink
shall
share
hoped
cannot
sniff
slee
interested
birthday
cent
den
ill
lang
mid
##pes
inqu
upset
chin
slam
fond
tells
wondering
easily
ignore
##idden
learn
explo
panic
block
ens
spread
flick
hardly
chuckled
direction
pet
rare
##ought
choo
chall
##riage
handle
log
brow
otherwise
amaz
peace
bottle
closing
glances
presence
oppos
forgotten
chapter
jac
##inting
##atures
##ctions
##oof
level
##ument
surg
##gging
action
concl
falling
listening
extra
colour
nurse
prefer
general
imposs
ahead
cook
cry
opt
##rie
##0o
##irty
##tern
poor
##gger
protect
photo
bathroom
psych
##unk
##aches
imm
surv
##ending
jumped
merely
jacque
bill
fit
hint
pap
##hood
##fet
##asing
themselves
green
remar
hasn
clim
finds
grabs
considered
officer
interrupted
swallowed
opposite
jacqueline
fully
glo
non
sar
town
dog
##icip
##ume
send
lose
locked
gras
breaking
armchair
blond
party
gives
chuckles
sym
request
received
tast
vamp
##cent
thick
alley
##ague
cover
clut
walks
cleared
stands
considering
utter
ridicul
welcome
clock
city
da
jud
##cused
thin
##iday
rev
##urity
unfort
calling
write
lovely
news
snort
confusion
lights
returning
caused
reminded
blinked
cassie
future
crying
echo
hated
mic
##pic
##pose
##ator
whil
##ilar
succ
gold
area
happening
clever
setting
drop
disappoint
templ
201
picture
nervous
risk
impossible
cause
lunch
pun
##ients
##iscu
noise
cha
saved
##aging
scared
crow
##aped
shocked
deeply
recently
sentiment
eyebrows
public
brilliant
whilst
wet
##hy
##inct
##ature
##oned
##ences
report
##verton
##ghter
lie
lived
alice
sand
age
downstairs
greet
emp
opens
curious
spend
laughter
##ified
solve
burst
natur
witness
camer
culverton
cake
jaw
pin
rom
til
ham
forever
fresh
shake
##aming
road
spl
remain
finish
##like
##ensive
pleased
played
patient
laughing
walls
sweat
lower
smirk
boring
fro
##ners
hab
##iments
##eton
shi
##riet
##ancy
series
stops
ignoring
tightly
perfectly
heavily
briefly
patholog
involved
ridiculous
dance
song
var
##ially
##ury
##antic
offer
twenty
blame
waist
showed
friendship
easier
laid
address
treat
respons
approached
removed
criminal
bottom
##what
danc
fle
lu
##ashed
##eeps
wear
chem
complete
crossed
smirked
annoyed
maj
loun
mer
main
sake
##val
##illy
##iers
sob
##ication
tear
##umped
sex
yours
somewhat
##opath
prec
steady
showing
picking
genius
tremb
favor
includ
alex
cap
soci
willing
doorway
focused
blow
seriously
replies
allowing
uncomfort
emotional
pressure
currently
challen
bast
eight
grou
jake
page
wand
##lish
##ives
##eeper
##pper
##rap
##ational
##dding
dram
##ney
push
protest
suspic
anthe
drug
growing
company
magnuss
biscu
dim
ice
mered
##uct
##yal
##eric
##urch
##amb
knowledge
written
##umbles
hurried
driver
figured
milk
properly
firmly
ambul
meredith
tuck
van
ine
##ghan
stuck
##ils
seven
watches
helping
mostly
believed
darkness
murmured
power
necessary
templeton
ball
born
pers
um
##ges
##gar
thumb
##ashing
##ote
stare
moves
whenever
plate
pray
clen
clar
##well
##belie
harriet
distance
footste
soldiers
embra
responded
particular
repeated
exclaimed
papers
anthea
footsteps
eager
ner
wigg
health
stares
##sell
slipped
blog
##ension
holds
fallen
furrow
enjoyed
dangerous
liter
discuss
grateful
tiny
##rid
joanne
knee
grief
questioned
colle
grand
intellig
scoffed
hears
station
##ushing
church
##ability
##roud
##arth
unus
features
manage
flash
talked
resting
ident
assist
surprising
skill
killer
drive
pressing
afghan
fighting
scrat
grip
captain
determined
scarf
announ
surgery
magnussen
hat
jour
umb
##iently
##now
##inc
tong
##ena
##ading
separ
loves
anywhere
happens
decl
sky
refle
bags
threw
statement
giggles
hanging
occasion
private
gentle
langu
ambulance
hi
hidden
keeps
pit
proud
sal
##cin
##itary
stam
##rodu
##ester
slid
americ
checked
decision
nightm
awake
record
leaves
excuse
rolling
promised
security
touched
subject
jean
particularly
umbre
##ger
##erence
##rew
##ushes
chat
summ
##ope
flin
pregn
partner
guard
murd
kissing
occup
purpose
effect
deserve
destro
umbrella
earth
sip
##rance
##friend
##atically
reaches
##rog
leans
loss
puts
morgue
women
breathe
warmth
type
current
lounge
auth
hy
park
sam
tax
view
wished
##iam
##eding
tot
defe
unw
whose
william
amount
prepared
frustration
belong
unex
##0o0o
success
fan
val
##bb
##ium
##aly
fort
##ades
worst
surge
closes
accident
girls
expecting
charact
horri
mentioned
mental
bullet
ack
est
pause
##aper
##ground
##lling
##rem
##ots
fridge
##icated
weird
exch
scow
boss
respect
descri
strength
guest
events
deduce
funny
magic
delic
landl
orders
trembling
acknow
fly
hars
rad
rout
##hm
##gin
##nds
toby
inno
##very
smart
teen
losing
##unity
envelo
glare
intern
experiments
russell
bringing
approach
annoy
shouted
knock
directly
physical
distracted
suicide
dull
fift
pul
ye
##els
##aur
##onna
stee
forth
alar
tec
##ular
heading
##ache
curled
##posed
guilt
reluct
concent
distur
prompt
nearby
mask
escape
cast
dust
kick
oles
pee
button
iss
nobody
suitc
abrupt
org
overwhe
excited
boyfriend
command
rushed
learned
huffed
angelo
scotland
unfortunately
author
techn
olesia
overwhelm
bri
bite
ya
toss
##omed
##ette
ash
##ented
##ential
anx
upstairs
exist
unlike
grew
disg
cared
swit
object
similar
explan
trick
extrem
anticip
mistake
ceiling
lucky
details
group
tongue
yellow
concentr
aud
aunt
bom
cru
mix
yester
soot
introdu
loving
##igned
pred
prove
glared
paid
guy
##ubb
buy
refused
breathed
passing
smirks
attempting
double
musc
military
crazy
disappeared
sarc
unexpected
yesterday
gonna
hiding
mart
##pse
storm
joined
neigh
knife
##istan
bru
blur
contain
surf
carried
instantly
planned
spoken
damage
common
cupboard
practically
soul
wooden
favourite
language
suitcase
neighb
bound
egg
gown
rib
##ox
##fic
##orter
##asper
whom
anim
shit
intense
nodding
exasper
pop
comb
##acy
among
letter
realise
conscious
staying
meaning
shower
##ails
listened
solving
acqu
jumper
laying
buried
rubbing
jackie
loudly
opport
previous
##hetic
amazing
hamish
pathologist
major
afghanistan
cush
faint
ri
##ma
##just
third
##itude
##ids
joy
##chie
myst
##anted
works
##ibility
startled
reality
sne
metal
dropping
traum
solved
delight
responds
unsure
murmurs
prefab
circum
romantic
harsh
hmm
lone
sour
tick
##cer
##und
therap
stab
##ality
chose
facing
failed
handing
##ander
##anged
training
curt
warning
harm
entrance
planning
hug
gasped
country
fucking
motion
exhausted
habit
uncomfortable
landlady
band
hig
lor
ms
mass
pound
tension
ver
##iction
##apping
##attered
##anna
##ution
##stances
pointing
cost
lets
gregory
happily
calls
behav
painful
raising
dressing
smooth
univers
service
favorite
taxi
dare
dying
gle
ju
ket
lad
##rence
##sc
##ued
##pri
##ios
##ina
eyed
queen
plastic
throughout
div
goodby
resear
wave
##wel
carrying
restaur
angri
movement
hopefully
windows
jump
former
england
officers
swallows
annoying
freez
pieces
urge
widened
chaos
cough
ep
hm
heat
##ases
##lot
bear
##lder
tender
spark
scen
twice
blind
vol
newsp
speed
##umble
stepping
streets
marriage
recall
realize
deduction
imagined
normally
drawer
searching
freak
convin
discovered
embarrass
inquires
disgust
opportunity
deeper
fool
mort
vague
##book
##gra
below
##illing
hol
deb
spee
disbelie
remains
speci
slept
woke
rolls
drift
plane
reminds
ordered
kids
dragged
loose
condition
desperate
##ompan
janine
unusual
bal
cool
fal
field
jer
lately
tit
wore
wild
##ops
##res
##ndred
inh
hist
##ession
depress
##pled
amused
emerg
waving
##action
##umbling
swear
instinct
accompan
wonderful
hundred
rush
english
suspect
rubbed
knocked
apartment
agreement
throwing
regardless
dismiss
blonde
micro
kettle
holiday
bent
bord
mach
mark
mult
net
rising
wink
wishes
##ism
##ceed
tend
spir
arg
grown
heads
becoming
actions
elb
ide
harder
closely
##ception
excite
terror
attempted
##atively
gasps
demanded
shadow
encour
squeezed
fascin
appreciate
sleeve
conclusion
symp
wiggins
annoyance
surface
goodbye
bigg
ling
rang
roof
##oc
##ky
##dies
##eness
##lls
##ims
lies
##raction
##apid
attract
brothers
actual
childhood
informed
monit
##ify
term
deductions
pockets
signs
accepted
released
tube
stretched
explos
alexander
explanation
circumstances
university
speech
excitement
15
cart
dut
pave
tab
##under
##py
##ien
##ores
##itation
##staff
##sequ
social
telly
plus
sched
shopping
floo
incre
continuing
admits
drawn
deduced
lowered
occur
suggested
nature
transf
terrible
yelled
wiped
puzzle
ensure
utterly
various
embrace
mystery
angrily
dan
gard
king
pure
ry
##back
##zen
##here
##inet
stru
join
##aline
##icle
brings
energ
##place
##lted
tray
##ission
adjust
stranger
seemingly
crimes
adds
noticing
mutters
study
sadly
remarked
greeted
bastard
biscuits
abruptly
lori
ease
ori
oper
rand
rough
rapid
tun
##ron
##anned
meas
##illed
smug
##raw
drown
waved
adren
perio
sets
stopping
uncons
vision
forgive
belstaff
folded
shadows
choose
taste
camera
dancing
literally
pulse
adrenaline
cell
dread
elder
honey
port
pool
vul
ward
##ald
##lle
##itive
washed
##char
shak
shame
shuff
likes
fail
worn
unb
##istic
plans
content
clin
underne
assured
caut
keys
raises
drops
chuckle
leading
impat
assumed
including
nerves
pavement
energy
underneath
cig
dirty
drew
et
gho
lun
tas
##wed
stern
intended
safet
##umin
enem
poison
twit
amuse
contem
finishes
opin
##col
desire
parts
retrie
consult
instru
corrid
catching
##plex
falls
grinning
appearance
ordinary
gestured
master
tort
##gued
battle
fixed
professional
crowd
organ
restaurant
random
ghost
safety
dart
fus
link
lines
pout
wings
##cy
##go
##nday
joke
doc
shy
mod
##antage
seb
royal
##aun
offering
grun
##acle
board
contr
momentarily
##iber
betray
helic
shoved
match
##iety
awful
accord
explains
reasons
medic
enjoying
touching
affection
grave
paperwork
landing
relieved
grimaced
arrest
disappointed
sandw
natural
capable
surgeon
newspaper
history
emergency
vulner
bought
cried
jes
james
kay
mumbled
sque
##por
##gress
##nders
stiff
##vels
##uries
frame
##ilities
intri
ability
hopes
##umed
arse
produ
mug
doctors
curios
stress
sounding
marry
incident
difference
##ivity
coffin
apologise
hallway
comments
gesture
deserved
witch
physically
lawrence
gathered
sociopath
clenched
furrowed
martha
origin
contempl
jesus
cot
cust
cand
fake
mumbles
rate
silly
tense
##sand
##ule
##me
##wood
##inging
todd
init
ate
analy
chos
aband
faith
enth
thousand
pride
bodies
emili
retort
rested
serge
frowning
shortly
affect
landed
drinking
poured
embarrassed
satisfied
shrug
rarely
skills
danie
cigar
chosen
base
boun
gap
mill
rich
sib
tar
till
##uary
##jam
towel
##asm
stat
neg
leather
saving
exh
depart
brows
quir
plenty
##play
remove
drunk
insisted
caring
decides
snow
matters
runs
patience
straw
christina
glasses
observ
giggle
assume
autops
pleasant
files
groaned
shrugs
vampire
tucked
murders
higher
research
curiosity
danielle
30
cy
hast
jul
lid
##old
##let
##vit
hea
heels
sheet
##loy
##oms
##omes
star
stair
consequ
background
therefore
cane
bedside
##izing
interv
##pos
murray
recent
member
collar
collect
trous
smoke
search
bowl
photos
injured
relaxed
pleasure
pillow
satisf
tilted
challenge
pregnant
disbelief
network
amusement
aver
cree
dav
fab
fist
fists
glow
ooo
rude
wow
##ham
##eral
##edly
toast
##stem
exce
develo
tele
fem
brushed
scent
##opter
afterwards
flut
twist
twisted
slipping
adler
carry
answering
smaller
margar
remembering
informs
deliber
afford
suspected
system
official
bothered
hungry
threatening
constant
mirror
awkwardly
confirm
slammed
predict
machine
sergeant
sibling
julian
dar
fat
hun
jun
rent
ride
racing
size
tent
##case
##udd
##orce
##lebr
whir
noted
myster
meal
noah
faced
faces
teach
entering
flu
blushes
dishes
cheer
click
acting
##itches
calcul
despair
huge
commun
calmly
checking
advice
sadness
celebr
weakness
neighbour
ribs
clinic
helicopter
kayla
ben
civ
length
nu
rul
rum
vide
##down
##vid
##iest
##wing
##nded
##ese
thom
##eter
fright
teac
plain
##aces
science
##athy
##iple
attend
haired
closest
skull
trailed
trigger
sighing
realizes
pretend
changing
temper
shouting
bothering
burning
thrown
urg
pictures
revealed
shooting
climbed
echoed
envelope
corridor
david
bone
dom
kier
nic
names
sides
tree
##ker
##yle
##iour
##mer
##gen
##ats
##lyn
item
stone
##ads
weap
weather
##lfriend
display
slip
glim
clue
string
obli
guil
guys
returns
girlfriend
indic
useless
realizing
wounds
scold
intellect
observed
confirmed
gloves
luce
extremely
bomb
##oxox
microsc
margaret
kiera
mild
nons
ox
pity
vers
##cher
##ipe
##time
hissed
stumbled
##str
##ctive
neat
meena
##usi
alert
##agg
offers
grad
proven
muff
sliding
rooms
glaring
resist
bitter
clears
##izes
silver
serial
fingert
replaced
driving
trem
hurts
terms
funeral
reminder
created
arrive
wrapping
drinks
color
advantage
apologize
paying
crosses
companion
investigation
provide
results
bleeding
narrowed
review
precise
journey
totally
routine
convinced
guilty
microscope
aim
ess
tip
vac
##hh
##ciously
##ressed
##uc
##mother
thirty
##aries
##itional
waste
stir
sharing
##ppy
upd
intention
season
sending
fever
manner
spr
covers
emer
happiness
##ishly
swung
stead
instant
##ifying
killing
comput
sentence
jumping
dealing
expensive
dragging
demands
frustrated
flower
option
chemical
inevit
river
multiple
garden
enthusi
bin
ber
coo
pacing
ven
##mates
##ait
##ault
##onic
stage
withd
frag
shudd
mov
##iles
##abor
##abeth
unk
env
##ption
clothing
##izabeth
retre
decor
decide
elizabeth
nights
breaths
follows
evident
access
passion
attempts
studied
secrets
advent
cleaning
trusted
eric
transport
gifts
struggled
potential
entert
immort
vampires
surprisingly
nightmares
exchange
alarm
anxiety
borden
schedule
toddler
trousers
fabric
rules
nonsense
bun
cream
faded
germ
lou
sinc
##ront
##dom
hen
height
##ites
##alous
moan
dece
complex
##orth
prince
flight
dish
remark
##ipul
cris
crit
surve
ador
settle
latest
wonders
trave
badly
chocol
function
speaks
avail
sharply
problems
crossing
##shsh
frequ
reveal
injuries
mentally
connection
tracks
wiping
exhaustion
surrounding
grasp
intelligence
acknowledge
yawn
behaviour
ideas
period
opinion
obliv
fingertips
19
bust
fought
gul
games
mac
rage
taught
upper
vent
##erable
tossed
staff
alco
hole
deg
feed
##ffic
diss
impl
client
adam
begun
warned
assass
points
wallet
gazed
perform
prior
lifting
blinks
drawing
stroking
escaped
constantly
hotel
limp
suicides
professor
employ
responsible
stamford
flying
lonely
lungs
interview
10
based
cries
jane
maint
nause
pier
tie
ult
##hol
##inger
stal
stubb
##cture
##ioned
french
aloud
leant
unre
seated
nowhere
grumbled
clearing
##ishment
blogger
career
strang
ends
distraction
accent
drove
hummed
paramed
uncertain
treated
solid
hugged
collaps
##ival
rushing
wrap
fireplace
horror
leads
strode
required
wounded
hesitated
local
survive
horrible
##hmhm
muscles
##graph
title
argument
according
##jamas
excell
computer
stubborn
dere
dig
nine
pra
tiss
##han
##che
##come
##lu
##lor
##zed
##att
##llen
##itone
##loved
##stand
##verse
anna
melo
knuck
##acked
allison
fac
spin
poet
scient
everywhere
letters
##anced
sword
elabor
paint
personally
catches
invitation
patients
buzz
experien
allows
addict
broad
refer
huh
damp
messy
choked
absently
changes
texted
tempt
jeans
baritone
blinking
murderer
nurses
screaming
sensation
posture
removing
criminals
terrified
autom
barts
gentlem
nervously
cups
cudd
genuinely
incredul
snorted
declared
american
fortunately
character
consciousness
trauma
dating
gut
ting
tied
##ca
##ral
##uit
##af
##iso
sheets
##anny
##imming
hero
stun
aston
##ays
intim
##ards
role
brush
bridge
manipul
##astian
##inkled
bye
bread
insp
pauses
conference
mattered
assure
##pleas
adding
solution
tighter
passeng
protection
straightened
texts
giggled
##ology
gesturing
torn
taller
desperately
provided
claim
bask
deny
fondly
naturally
innocent
cruel
exasperated
source
therapist
shaky
sebastian
target
autopsy
alcohol
derek
bible
duck
gay
jw
py
pace
sore
##kin
##bal
##iven
##ians
##mar
##the
##inis
##orough
beloved
##idget
whim
##iration
upright
##rib
arrog
whoever
twel
remaining
##umber
swir
deciding
confident
hurry
patted
visible
cutting
damned
purs
comforting
cabinet
engaged
arrival
shifting
eaten
ringing
require
elect
suffering
connect
observe
arrange
squeezing
reassuring
judge
chemist
persp
approaching
eggs
##priate
elbow
struck
medicine
darling
chocolate
excellent
bang
buck
fet
fate
fancy
mant
nud
oi
tour
vill
west
wine
##lan
##nown
##heart
##ero
frank
mya
chips
dept
unlock
robe
brushing
friendly
##ibr
cred
insult
curly
strings
ending
minor
corners
hurting
irre
travel
traffic
trip
useful
misc
appears
filling
pretending
extended
cheekb
highly
engage
##mber
charge
rubs
burned
winced
struggling
pouring
incredible
intelligent
summer
reluctantly
monitor
rapidly
task
sandwich
cigarette
video
weapon
depth
aven
awe
bones
crou
fant
fash
kicked
lord
owe
redu
vir
toes
bee
##eting
wash
##ley
rever
sobs
intent
intently
##rier
##alled
overd
prison
slide
diag
crad
ado
perm
##inted
bites
moran
smallwood
famous
corpse
metho
weeke
picks
raise
halfway
pushes
images
boxes
jealous
apparent
typing
commented
avoiding
notebook
eleven
revealing
##guing
occasional
devil
reporter
ruined
surrounded
preferred
froze
america
scenes
muffled
louder
fu
fidget
hook
jam
nap
wil
##lies
##vision
##iqu
##erial
##ashes
haun
##omm
washing
reception
forens
shining
socks
##amund
##iced
moon
moder
novel
chase
levels
host
deliver
teasing
spect
proc
twins
image
contents
reser
uses
trained
adult
bloke
rosamund
##soci
slightest
closet
sooner
casually
casual
compet
visibly
deducing
russ
purch
pursed
purple
grace
palm
students
studying
brightly
apology
profile
typ
suggests
stronger
fairly
recognized
discomfort
dreams
searched
screamed
irritated
impressed
faster
logical
cameras
characters
fifteen
issue
ashamed
glee
ryanne
unconscious
female
bench
dumb
fi
fish
lump
named
pants
rings
tail
##ka
##vent
##fit
##zing
##jw
##atory
toys
##arse
bees
beating
##ety
friday
butter
liqu
web
##acks
##essing
##antically
##ardon
rob
##astically
##unate
covering
flashed
needing
becca
everybody
detached
slumped
cheese
cloud
finishing
waves
helps
helpful
insist
waits
snat
keen
distant
facts
possibility
trapped
expert
commit
tightened
protective
strokes
shouts
craw
oddly
packed
unique
injury
reput
sniffed
cooking
psychopath
remarks
dramatic
nightmare
teenager
overwhelming
episo
fascinating
abandoned
satisfaction
inevitable
automatically
twelve
du
ginger
hanna
##spect
##ws
##oted
store
##ceive
##iring
##acking
sunday
unp
unif
spare
plates
grass
prim
proof
##print
emma
insane
cursed
spending
decades
confidence
supper
satur
influ
complain
believing
shows
pattern
lots
##jection
polit
topic
positive
importance
##hold
mistakes
kidna
impro
settling
eleg
scramb
hesitation
##gram
encoun
location
extraord
snorts
tossing
existence
vaguely
drifted
false
depression
flooded
occurred
torture
oxy
available
knuckles
perspective
hitting
hips
nav
punch
rise
vibr
##bie
##ns
##gie
tow
##orge
thunder
shed
##iter
##itions
##ute
stut
##ayed
##entially
noting
wheel
abby
justice
manages
spine
grie
flour
blushed
detect
fog
##pel
clou
resol
surre
precious
attached
carol
newly
##lix
curse
swore
sideways
material
readers
##hens
awa
marks
invited
accom
visiting
visited
sorts
nearest
thread
##jected
shifts
male
threatened
prepare
prevent
privacy
struggle
connected
convince
ruin
photograph
survi
clutching
wandered
college
announced
radio
steel
soothing
embarrassment
sympat
lingering
transfer
cautiously
original
sincere
assassin
experienced
wilson
uniform
aching
bi
cous
dil
dates
fidd
ge
kit
san
tid
tape
tapping
ugh
vital
wishing
##rum
##ugg
##dain
##vant
##bc
##bers
##xx
##aster
##imately
forty
shown
shape
##ament
intens
unpleas
##tery
rohan
loyal
spy
spat
code
arch
##ples
progress
disdain
drank
clients
##prom
##lto
peered
phr
cars
sholto
softened
playfully
eyel
chairs
compliment
patting
patiently
remembers
messages
absent
creature
recovery
gunsh
groans
accepting
sunlight
settles
previously
boredom
senses
throws
stuffed
discover
superior
surroundings
irritation
dawn
split
frozen
eagerly
occasionally
destroy
switched
divorce
specif
accompanied
##ceeded
bigger
duty
enemy
consequences
version
piercing
frankly
avenue
saturday
12
bbc
gar
gain
hous
kings
kitten
mused
north
pile
pip
pardon
tur
tang
##rain
##ught
toil
##isation
thus
style
associ
##urance
##cting
shattered
soaked
libr
nope
leena
exposed
godd
tex
##uming
bride
cock
offended
headache
thoughtfully
dischar
veins
appe
appl
perman
wrote
##ola
##posit
court
sorrow
thankfully
leah
mission
members
swept
appearing
formal
presses
smirking
polite
appropriate
lifts
horse
learning
transl
thrill
deserves
practice
preparing
weakly
release
folder
claimed
logic
daily
judging
flew
suspicious
scratch
journ
occupied
guests
delicate
acknowled
promptly
cushions
specific
department
heaven
teacher
neatly
movie
unknown
degree
credit
weekend
toilet
ais
hip
hates
ly
lung
mmm
om
pad
south
tv
wing
wiz
##sery
##uated
##pie
##ta
##ael
##nes
##wart
##oning
##asy
##omy
bell
##stal
formed
chain
abuse
backwards
unne
felix
span
pla
popped
covid
archie
scru
##ruction
slips
clum
club
clicked
##coat
attic
snaps
courage
coron
understands
enters
built
indign
additional
media
absence
imagination
delet
checks
signific
student
wraps
apologies
nursery
circles
determination
observing
gathering
impression
centre
sympt
treatment
discussion
reflected
estab
scowled
innoc
lovingly
richard
items
withdraw
paramedics
poetry
liquid
reputation
ban
bank
cow
ded
gau
hits
lined
pages
raced
sen
ted
tag
##hand
##lig
##bly
##bish
##ipp
##iating
##mind
##found
heal
heel
thorough
shelf
sheep
##itated
inner
bearing
##uted
##vement
reven
##urd
##ales
##ools
lifet
island
conce
sacri
worries
##uled
fellow
seek
lover
sport
argued
flipped
flicked
flesh
imper
contained
##pend
clas
clues
emily
resumed
crens
realising
behave
pausing
snar
snap
##haw
eyeing
##uffed
complained
meets
humans
bund
compared
notices
miserable
realization
pretended
maggie
disappro
politely
immediate
price
muttering
edward
rubbish
numbers
unsett
troub
stroke
directed
screams
squeeze
brand
yelling
##grat
film
dismissed
incredibly
flicker
choosing
disappointment
shivering
included
wandering
protested
inex
separate
flinch
reluctant
brick
mixed
bruises
embarrassing
balance
spirit
impatiently
vulnerable
custom
average
oblivious
collapsed
stunned
pyjamas
chemistry
extraordinary
cousin
library
crenshaw
ached
baking
erupt
jones
kat
lur
por
penc
rust
ruff
ramb
tin
taun
wise
wool
##sis
##pet
##mi
##mail
##gy
toy
##isk
##otic
rehe
receive
forcing
##sec
##cts
atop
##icate
alf
chances
sul
exit
##arded
ages
##venient
enola
ponder
somebody
argue
granted
scanned
prin
flashing
needle
##ichael
emph
goodness
owner
bothy
partners
morst
morph
curiously
oblig
famil
complicated
pathetic
distinct
account
questioning
earn
indul
driven
dripping
trees
medication
collected
##phone
studies
cleaned
blankets
gasp
recognised
scrut
package
examined
assuming
grimace
sensitive
motiv
sticking
idiots
bottles
miracle
basically
midnight
blocks
golden
sentimental
biscuit
assistant
assistance
flinched
##0o0o0o0o
animal
exasperation
curtains
biggest
document
initial
quirked
television
confirmation
domin
glimpse
tissue
elaborate
modern
revenge
18
aug
bon
bout
daz
dumped
hid
mal
restr
ske
sway
uk
waking
wipe
##hips
##ean
##iac
##ater
halt
beer
stars
stif
reun
frantically
shorter
mock
upwards
whee
chasing
sugar
hog
failing
agony
tearing
unit
##ulation
##umping
##aud
pluck
coinc
##ours
##pson
##orted
scan
flushed
prospect
boot
##uded
slim
trad
##ipment
crum
crash
handsome
attitude
curling
spell
cora
breathless
reads
latter
painfully
thankful
distress
humor
parent
compre
refuse
kindly
shutting
magaz
absurd
affected
##zzy
mutual
worrying
demean
draws
giggling
panicked
demanding
beauty
universe
repeat
occasions
victims
scott
center
illumin
grasping
alleyway
responsibility
bastion
destroyed
belonged
successfully
accidentally
delicious
route
disturbed
overwhelmed
unlikely
anticipation
sarcasm
animals
coughing
deliberately
hunched
thompson
emerged
fragile
german
spinning
oxygen
unpleasant
specifically
texting
lifetime
august
aid
dat
eve
gorge
hom
iv
oo
ripped
rhy
sed
sank
tro
tap
##over
##coming
##rument
##uous
##bre
##ball
##helia
##inent
##asingly
inward
##loo
belly
stool
joking
jokes
reck
forb
##alia
dozen
##akers
sod
lied
neut
##esty
isol
melt
##ications
##ician
existed
backed
##agues
plat
scal
becomes
bolt
disag
reminis
amid
watsons
ophelia
owned
biting
bedsit
swift
shoe
confront
instrument
relent
suppress
elsewhere
raw
humour
##rete
regular
promises
draped
committed
lowering
##ivities
passes
violence
square
create
fourth
gasping
miles
focusing
avoided
recognise
swallowing
winter
practical
efforts
destination
luckily
cracked
widen
yells
article
equipment
puzzled
impressive
january
clutched
shiver
fleeting
healthy
colleagues
separated
exchanged
freezing
jerked
winked
retrieve
shyly
contrast
intrigued
million
siblings
fatig
nuzz
frightened
precisely
passenger
caroline
unnecess
pencil
morstan
cling
etern
fier
ky
kait
mh
mc
mail
plo
rot
range
rail
rug
tips
vic
zo
##vet
##mat
##fying
ther
##ara
##owed
##uts
online
sherlocks
##alian
##ooling
##irm
##ams
weary
chick
aback
leap
concept
congrat
sav
##rick
handful
##uments
seiz
feared
timer
timing
manager
qual
overly
pops
copy
bold
roommate
resemb
gotta
insert
##ounced
retired
decis
snick
elic
stream
shoving
confessed
lighter
served
corpor
painted
cats
replace
incon
inches
invite
skirt
concrete
explaining
godmother
ignores
hugs
alongside
violet
frowns
##master
burd
syn
selfish
##aneously
knocking
tiredly
gestures
fairy
smoot
elev
examining
frustrating
emotionally
cards
folding
equally
rule
##0000
habits
identity
announces
pregnancy
effects
total
anticipated
concentration
muscle
container
amongst
acquaint
cushion
delighted
attractive
unbear
contemplated
benn
melody
fetch
cheekbones
crouched
russian
clouds
accompl
symptoms
morphine
families
kaitlyn
congratul
apr
bud
camp
dried
digg
fic
fare
giles
kr
laz
lamp
mud
nast
national
ram
ric
tapped
wis
yep
##oke
##lin
##long
##lished
##vable
##bag
##ike
##tons
##fire
theory
##oub
##attering
toler
##itch
ing
hisses
##rey
##idents
stagg
##stick
##stret
##ural
##chal
##chief
##ainted
##essions
outs
suite
saf
##key
hovering
deli
##agged
##uls
sea
semi
rock
##alls
anyways
##igid
comprom
##pters
grat
gram
gritted
scand
print
fluff
bond
blush
blushing
breast
slapped
impe
veh
dip
claw
phil
voices
##ipher
appoint
desce
bits
minds
blown
##izz
interact
swo
lighting
lightning
##ultaneously
childish
stock
assess
causes
##uffs
simultaneously
accur
regul
memor
forwards
gazing
spoon
breathes
hugging
greatest
honour
affair
recovered
prick
forgiven
cabby
advanced
reactions
dining
safely
blankly
foreign
##works
doubts
escap
recognize
property
examine
gripping
freed
huffs
receiving
soup
device
suffered
strike
tugging
services
exclaims
flickered
climbing
nonchal
sarah
nerve
scratched
reflection
murdered
fifth
disturbing
issues
tosses
switch
audience
sarcastically
sympathy
explosion
etched
darted
hastily
##posure
gulped
whimper
influence
survived
journal
aisle
##warts
hogwarts
crumpled
fierce
kyrie
500
achie
boo
billy
dang
fest
furn
fret
ow
pup
si
sust
ta
tale
##cast
##pen
##bert
##mered
##wal
##inate
##ndry
tooth
##isible
##ords
##onment
##ana
bew
beck
##lying
stitches
##alf
##oop
##robe
##aks
wealth
altern
chill
##abb
##ables
suc
abdom
hoarse
dep
##aste
##inkling
pov
cop
##pless
scra
scare
pron
project
blunt
disgu
remote
##eeping
email
knelt
resolut
resigned
peering
phill
##xture
particip
curses
retire
swimming
minim
confession
matching
rests
invisible
angle
trail
earned
counting
treating
secure
ache
##box
breaks
defense
rushes
seats
sometime
lays
cabbie
charles
palms
humanity
situations
growled
bird
##ological
exception
generally
##shjw
hesitant
##ceived
##ountain
gripped
constable
spots
spotted
tests
brave
braced
flowers
worthy
tugged
##while
unfortunate
2011
punishment
reports
sobbing
society
blowing
drama
dramatically
persu
fanf
described
technically
combat
pounding
juice
scenar
foolish
fascinated
enemies
squeals
stairwell
twisting
mysteries
civil
gradually
immortality
december
nausea
scientific
gentlemen
permission
jamie
typical
elegant
withdrawal
princess
magazine
data
gorgeous
fatigue
chicken
nasty
delivered
11
bore
baff
cere
der
dee
duff
dirt
fitting
hood
mm
naked
oven
paced
roo
sling
wince
##hab
##ec
##rated
##put
##des
##dged
##bby
##bury
##iate
##gment
##ja
##hest
##ndane
##ators
##istered
stol
stormed
ast
aspect
reci
fred
softer
##ppa
knot
weigh
alto
alumin
intric
nolan
##rous
unim
brisk
composed
proving
proced
twin
thoughtful
muse
mundane
bree
remn
longing
underw
resc
wrists
cares
##acter
##beat
stray
behalf
laundry
guessed
serb
painting
woken
pointless
slowed
maria
seeming
inviting
registered
indicated
counted
deadly
furiously
misery
##iliers
warmly
jumps
extent
crept
creating
grav
calming
severe
subst
temple
tempor
relationships
##aware
doubted
hesitate
hesitantly
mixture
maddy
terrifying
absolute
wipes
arranged
bullets
puzzles
beaten
slamming
options
2010
empathy
witnessed
blows
suspicion
tucking
colleague
flashback
recording
scowl
introduced
recalled
encouraged
attracted
ryan
sternly
consultant
fusiliers
vulnerability
cotton
gaping
develop
tentatively
mysterious
civili
temperature
urgent
scolded
remarkable
adorable
frequently
ducked
miscar
depths
reduced
virus
adopt
kidnapped
navig
sympathetic
houses
atticus
thoroughly
clasped
corporal
digging
abdomen
##shjwshjw
recipe
aluminium
bul
broom
bubb
eli
fade
fuss
fiction
goo
hush
nanny
oce
pig
plot
ras
site
sipped
ti
tad
tipped
wanna
##oes
##eu
##do
##lting
##lance
##yer
##iar
##ifully
##table
##inter
##erc
##ouched
##athing
##enced
youth
##loget
##omatic
begged
begging
##otine
##idently
whined
buttons
##ftop
shrie
lic
meals
##icles
##ustomed
lecture
sau
deaf
##umes
##umps
seeking
##unte
enig
quit
quart
overt
popping
headmaster
scattered
##earing
##lms
blast
wax
##ectively
trade
cring
apple
active
##beard
newfound
strides
decent
homeless
hearts
viv
mates
restri
related
infant
incomp
evil
patch
youngest
parking
excl
exciting
indiv
compar
airport
refusing
cute
cuts
collection
greater
shuts
redbeard
choking
choices
forming
jeff
stroked
dresser
interrupting
impact
sweetheart
index
companions
##annel
presented
sticks
regarding
welcomed
forgetting
cuppa
unfold
scoffs
pillows
discussing
undoub
admittedly
gratefully
logan
peaceful
grasped
judgment
2013
punct
shivered
hurriedly
vanished
prayed
hyp
value
internet
disturb
bruised
boundaries
july
tenderly
volunte
tune
measure
unconsciously
elderly
failure
instructions
status
negative
staircase
nicotine
##oxoxoxox
electric
mantle
fidgeting
procla
tower
surrender
intensity
coincidence
comprehe
rhyth
neutral
disagree
ingred
rooftop
stolen
altogether
individ
24
dug
dwell
eh
ec
east
ella
ego
fed
fue
icy
lam
oak
pint
rud
slo
sang
ties
tough
tues
wry
##house
##occ
##rr
##uish
##lter
##lace
##lines
##iant
##mark
##away
##aving
##aved
##alog
##nos
##wr
##heve
##heless
##etheless
stained
repr
revel
rehab
whist
fork
##amped
##amiliar
monday
suits
abilities
conve
conced
exerc
##agging
aggress
unst
unbelie
unchar
unaware
##istol
##une
##unken
spar
overnight
overcome
##inkle
##igor
gran
greets
##acon
scars
flames
program
needles
bland
disheve
chelms
clung
##ibilities
pecul
wherever
startling
crook
crush
makeup
perched
wrinkled
activity
carpet
interrog
##poken
sidewal
confli
##nel
relative
playpen
infur
stays
entry
irish
leaf
humming
traces
##tedly
cash
register
buying
trium
addition
coughed
presents
completed
##idding
blackmail
reminding
edges
signal
apologet
fireworks
singing
barrier
types
sunk
suggestion
sickness
escort
pudd
examination
limited
locking
involving
disappearing
torso
regarded
suffoc
unfamiliar
##onym
investigations
##ification
desperation
pills
regretted
sniffles
sleeves
coloured
nonetheless
requested
danced
uncomfortably
identify
chatter
defeat
international
anxious
therapy
verbal
freezer
market
elbows
drowning
wardrobe
##aldi
grunted
observation
cheerful
communication
thomas
passionate
entertain
immortal
referring
arrogant
unlocked
episode
hannah
awaiting
phrase
sacrif
alfie
unnecessary
unbearable
remnants
miscarriage
ocean
undoubtedly
ingredients
tuesday
chelmsford
00
avery
borrow
cher
gp
jail
lake
mam
mour
mhm
pand
pissed
pistol
ug
wakes
##hot
##cery
##ras
##rest
##iat
##ilo
##men
##matic
##tress
##aid
##nat
##fall
##father
thigh
sheer
ink
inn
haw
stim
##aying
jolt
joining
reli
forear
##ooping
##irting
dose
ship
shaken
##icient
outcome
noises
exec
depri
aged
handbag
sele
sept
##ateg
loaded
managing
spun
spring
cocked
arguing
thanked
flust
slides
amusing
containing
armour
##ctory
##iban
reson
##angs
##ggles
##aph
##apse
attent
attending
activities
carl
##bell
##eav
signed
endeav
shops
taliban
mattress
plays
warmed
supplies
floating
stole
assures
##aughter
meanwhile
pats
accused
recomm
hums
humili
trails
reasonable
countered
addiction
movements
ignor
figures
lesson
chuckling
honor
layers
educ
daughters
necklace
secretly
##hole
grocer
mistaken
interrupts
hunger
thrilled
sweetie
wincing
packing
benefit
corrected
circle
destruction
cracking
flowing
suffer
strict
investigate
investigating
powers
equal
claire
attacked
reassures
psychos
greeting
pinned
majesty
challenging
powerful
clenching
describe
prompted
extreme
concentrated
introduce
blurry
combined
stabil
behavior
inhaled
carton
increasingly
smugly
shuffled
cautious
gruner
retorted
bouncing
junior
vacation
henry
dissip
ultimately
praise
buzzing
intimid
inspired
engagement
fashion
scrambled
detectives
gunshot
tedious
bundle
erupted
decisions
burden
fluffy
vehicle
appointment
rescue
##interest
rhythm
uncharacter
peculiar
triumph
groceries
16
dub
flex
fountain
hill
hind
nib
o0o0o
piss
rank
tact
vom
vault
woo
##kins
##ender
##ext
##egr
##ram
##rors
##liness
##ik
##math
##gl
##word
##for
##fish
##erry
##eds
toe
##arm
inher
##ometer
beep
##owing
##imate
wasted
##otion
##ston
rejection
##ironment
##roc
sole
soap
##estic
melted
##icism
mode
wearily
##ila
##ille
##usive
intend
##agon
agent
rope
brook
spilling
poking
composure
aftermath
blaz
blaming
mugs
slur
context
drain
clancy
##assion
helpless
##ggs
attended
percent
writer
##olved
insight
##ancé
carries
parted
interf
##posing
speaker
swip
siger
homework
heartbeat
minister
tales
steal
guide
consist
openly
relatively
playful
assault
##ifies
recip
leapt
expectantly
reasoning
trial
reflex
furious
cutely
sorted
tightening
fills
##phy
imagining
##zzle
freely
stephen
obsc
dangerously
larger
sirens
acceptable
violinist
mistress
murmuring
crap
interruption
##berry
countless
example
contacts
urged
correctly
classmates
sought
smells
suitable
concerning
shoots
serviet
stretching
squeezes
blew
reassured
irritating
dryly
learnt
flickering
petul
chapters
sobbed
praying
clara
clarity
repeatedly
unusually
hatred
belongings
successful
kicking
mortuary
drowned
etc
pouted
##going
betrayed
exhaled
developed
predictable
calculated
update
steadily
chemicals
enthusiasm
environment
decorated
adventure
##shshshsh
maintain
tempted
irrele
diagnos
method
fiancé
wheelchair
resolve
eyelids
discharged
permanent
##piece
clums
rehears
emphas
amidst
swiftly
relentless
eternity
bennett
swollen
bewild
procedure
comparison
jeffrey
##occup
sidewalk
ugly
flustered
aimed
cooper
dared
dash
drugged
dign
ee
git
laced
mout
narr
panc
rit
rif
ratt
rigid
session
tes
tub
xxx
##eal
##uation
##dale
##bbing
##iation
##iated
##iences
##mit
##tail
##aves
##gre
##zard
##inity
##erb
##atter
tox
toll
heated
healing
thames
##enn
shelves
##iture
inch
##reet
bending
beams
##ower
##ider
stack
stable
stung
whipped
forces
##urg
##chan
dod
notion
shr
moans
molls
##usions
albe
##anter
##anting
convenient
hop
##agger
agitated
handc
unha
##ulated
sevent
fears
##isters
orange
##unched
spenc
overs
overhead
##inkles
##orthy
##itty
gray
stilled
proved
proceeded
blade
mudd
disaster
slice
cheers
chess
chewing
drunken
usher
phones
##cover
##ancing
carriage
realisation
partially
interaction
interjected
flats
stressed
worker
worktable
decade
snapping
via
consumed
confess
slender
standard
warns
flopped
wobb
assigned
simon
pasta
distaste
accoun
trap
##anky
indiff
uncon
addressed
visits
fury
territ
certainty
knowingly
decidedly
violently
absor
babys
comfortably
affairs
approval
cabin
##mbol
palp
subc
subt
symbol
dealt
colored
advises
ordeal
growls
guessing
smoking
recognizes
element
200
discarded
packet
locks
classes
capture
sticky
loos
cracks
batt
strangely
pointedly
inclined
tracking
relaxing
##ringe
##ielding
angela
basic
appreciated
illness
surgical
colouring
optim
revol
echoing
goldfish
merc
challenged
suspicions
dimly
balls
grandmother
stationed
announce
proudly
salt
stammered
defeated
internal
casting
excitedly
briggs
sarcastic
unexpectedly
harshly
loneliness
massive
sparkle
volume
instinctively
accompany
encouraging
lingered
roughly
##rawled
shuffling
twitched
instructed
darting
linked
betrayal
arrested
creeping
teaching
retreated
adventures
crisp
broadly
incredulous
basket
village
methods
forensic
reserved
purchased
primary
encounter
sanity
goddaughter
significant
innocently
demeanor
gratitude
furniture
sixt
fredrick
elias
tipt
irrelevant
tesco
albeit
spencer
au
dots
fans
faked
groom
jar
nest
ot
pipe
ren
sons
section
saint
wre
yan
##ob
##rim
##uing
##pir
##lets
##bare
##bling
##ique
##mon
##michael
##nam
##ware
##field
##xim
theories
##erie
##atives
tore
thirt
##itor
hallow
italian
##lend
reb
##cending
##oops
##ooled
ank
##chy
shaped
licked
mechan
##iches
##iciently
mocking
##illance
outr
nove
cham
chast
lege
unmo
rocking
##alling
##istically
spout
spray
que
##inking
pod
thanking
##icking
##acul
##acity
willingly
boat
cloak
neverthe
slap
slipp
drum
glint
voc
design
##ggle
callous
perceived
acted
carmichael
findings
newest
curb
striding
swing
sworn
paul
endless
nightstand
mini
serving
hardest
##pressed
stove
monster
belief
marked
concert
##osc
darkened
##versary
trace
admiration
misses
earning
hopeful
misunder
calmed
perfume
considers
protected
magical
extract
squir
recover
engine
subs
subtle
briefcase
honesty
##encies
acceptance
suggesting
labor
natalia
burnt
discon
dreamed
bowed
grimacing
grimaldi
sonja
corrects
repeats
visitors
terribly
include
struggles
potentially
bookshe
stretch
penet
##hetically
inquired
exploded
cookie
cookies
survival
hints
requests
punched
crowded
bursting
songs
merry
sexual
iceman
prayer
unwilling
description
dusty
soothed
containers
popular
acquired
majority
sneered
smoothly
suspects
dismissively
shakily
impatient
sandwiches
intriguing
analysis
urgency
domestic
tremble
stirred
enthusiastic
retreating
critical
surveillance
acknowledgement
gentleman
arrogance
arrangements
fashioned
haunted
threadbare
photographs
transferred
sincerely
acknowledged
disapproval
porch
rambling
scrutin
scanning
therm
elevator
staggered
grammar
regularly
comprehend
apologetic
sacrifice
forearm
psychosomatic
##occupied
nevertheless
40
88
bars
bumped
core
cau
daring
faking
gy
homes
jab
ls
mim
nick
row
rack
riding
scro
sips
tay
tant
vast
##ole
##oid
##ody
##keeper
##rant
##uable
##yy
##iper
##iable
##ilot
##fr
##inable
##erous
healed
##ork
thud
##enched
shelter
##rees
hamm
hauled
##loyed
belt
bellow
beaker
wasting
ster
sting
stored
ree
##urst
##rop
solem
myc
##amond
chip
chains
sucked
legged
##riger
goss
hollow
deft
dearly
debr
agents
tease
unm
##venience
feather
anytime
enqu
qui
##ffe
areas
##acc
sche
scout
scri
flung
flush
flaw
flirting
bless
cheap
vend
gregson
diamond
fired
underground
momentary
goodnight
crut
applic
##xton
attraction
insuff
insists
waiter
flatmates
strained
snugg
##moon
endure
pleading
oldest
stealing
matched
readily
fingern
supply
monot
simpl
incap
inval
darker
accustomed
sleepy
trailing
parked
excuses
listens
reasoned
indication
laur
deaths
compassion
refriger
strands
gazes
prescri
presume
figuring
hudd
whispering
forms
charity
grounds
victorian
reacted
unspoken
horrid
maid
lipstick
odds
controlled
impass
##arring
utters
limit
limbs
repeating
posted
motive
testing
uneasy
bartender
welcoming
condes
conditions
determine
devast
agrees
unfair
concerns
##ifications
providing
stretcher
necessarily
brilliance
reassure
##etti
shallow
century
denial
midst
fondness
blocking
spreading
amaze
concluded
reporters
witnesses
tilts
sweaty
precaut
suspiciously
thumbs
scratching
pitched
destroying
hyster
horrified
peeking
commanded
commanding
authority
combination
costume
ladder
dismissive
structure
adjusting
honeymoon
twitching
modest
custody
initially
basement
fluid
calculating
celebrate
indicating
mildly
provenance
bitterness
aiming
venom
bustling
##hmhmhmhm
cuddles
swirling
connections
banging
overdose
fuzzy
##iques
piped
wizard
plaque
sheepishly
earnest
inwardly
scalpel
railing
scandal
sustained
disguise
scenario
breeze
proclaimed
individual
infuriating
mama
ritual
##oscope
taylor
solemn
17
bung
cant
dess
eri
fart
fiz
gall
gang
hic
kir
lining
na
oct
rache
veter
wri
zep
##hou
##cra
##rust
##rate
##pm
##tw
##tage
##inous
##inated
##oul
##nderson
henderson
##org
##orse
##oni
##llo
##aroni
##cken
inability
haze
##immed
stating
stark
stumbles
reward
##sex
##ooped
athen
frantic
fruit
notep
shade
##aine
##icy
##icing
##icating
upt
upward
outfit
whatso
chased
##abell
goon
holes
agency
handker
teased
teases
unnot
##ula
##umn
sealing
anybody
spite
##urned
quality
overcoat
waters
plas
tool
cope
##pses
propped
proxim
twe
twir
##udge
bliss
disord
remorse
slab
cheating
glit
glist
armed
diet
diary
beta
resort
resign
rescu
##ggy
##oletti
caressed
partly
snark
sniper
endearing
##lessness
shoves
heartbre
guar
guiding
confid
corn
pained
probability
catalog
deepened
ourselves
hurrying
awak
awoke
marath
evidently
recru
killers
triv
presum
despised
spoil
performed
##rugging
croft
damaged
lessons
violent
meantime
purse
respective
squat
creased
creatures
##zza
layer
mutter
straighter
arriving
arrives
subdu
##laim
demon
barked
trusting
typed
error
burns
thrust
tensed
exams
dreaming
bowls
constru
replying
disappears
##erences
visitor
sensing
captured
nora
releasing
lacking
apprehens
anni
trainers
reassurance
##ettes
flicking
chooses
challeng
immense
climb
tasted
tastes
echoes
miche
succumb
crowds
##hyr
romance
tilting
eighteen
kneeling
identified
separation
chatting
unwa
kicks
objects
audible
harmless
bandage
pounds
poundstret
convincing
holidays
explosions
tabby
dreadful
twitch
originally
candle
observations
##posal
predicted
tremor
essential
moaned
traveling
functioning
macaroni
employer
uncertainty
facade
incredulously
baskerv
##umberland
fantastic
cradled
forensics
snatched
unpre
##prints
northumberland
##position
coronation
delete
dedicated
sensed
unsettled
lurking
ruffled
clinging
smoothed
ricoletti
philip
accurate
pupils
companionship
volunteered
revelation
##natural
reciproc
eez
territory
halloween
thermometer
refrigerator
dessert
erika
zephyr
athena
whatsoever
handkerchief
proximity
subdued
poundstretcher
50
aub
austr
bacon
banter
gate
lin
lull
math
nails
ninet
nuts
oc
pm
ped
puff
pts
rat
rue
race
rene
sipping
tan
umm
vet
vows
wary
wicked
ze
##eg
##ridge
##pat
##dg
##tes
##nham
##wind
##xual
theat
##inge
hem
##enant
shezza
##itis
yout
##load
bem
bend
beamed
##imated
##utenant
##otted
stall
stem
asc
##stone
joked
joint
##vert
doll
shiny
shattering
soaking
meat
webs
outright
intending
integr
chim
champ
suited
leak
exiting
backs
goggles
depe
depend
union
unpr
robb
mans
manners
enorm
enlight
spill
sprawled
cann
overhe
plant
poem
comf
timeline
coc
coke
colog
##ileen
##oured
grows
grump
##acher
scree
prime
afterward
flipping
stillness
propose
disse
disres
chef
underest
resent
traged
trunk
phase
crashing
appet
takeaway
writ
insign
minded
caress
##ization
parties
carelessly
##lihood
intertw
lasted
strad
strain
swinging
paw
pleaded
steaming
silk
consuming
matern
##neys
restless
relates
relays
wolf
info
infection
infilt
persona
complaining
eval
trudged
possessions
farnham
explore
recon
records
leaps
admitting
admired
admission
expectations
missions
regain
experiences
expressions
housekeeper
mischie
interests
christian
##boy
defensive
enjoys
redd
choke
babies
affirm
guns
straightening
football
charm
charming
burgl
eyeballs
demons
responding
heavier
importantly
brighter
sadd
europe
truthfully
grocery
sunny
screwed
focussed
masks
mi6
assumption
lockdown
difficulty
##rina
cardboard
relevant
mentions
striking
personality
cassero
mirr
angel
unden
##lights
sinking
denying
slams
amazed
colours
sends
microw
lieutenant
sexy
ballo
furrowing
guards
fanfic
valid
scowling
steepled
organs
bombs
blurred
ripp
curtly
bandaged
highest
verge
freezes
mortem
drifting
loosely
faltered
depressed
winks
ideal
encourage
speechless
operating
periods
model
cottage
cigarettes
negle
flutter
fluttered
fluttering
deliberate
neighbourhood
nicer
indicate
intellectual
erica
entertaining
oblivion
performance
strangers
##standing
##iveness
jealousy
competent
butterf
episodes
fiddled
applied
coward
concealed
sports
katrina
skept
traditional
ooh
mcg
inserted
acquaintance
safer
freedom
nonchalantly
retirement
fanfiction
deemed
briskly
flashbacks
civilian
sauce
enigmatic
hypot
ignorant
rehearsal
bewildered
unhappy
subcons
revolver
otter
november
##frame
scribb
fingernails
farther
##craft
notepad
resignation
micheal
baskerville
ptsd
website
cologne
mischiev
award
ba
bunch
cem
dum
dun
dies
gear
gaped
hired
junk
jenn
kar
lanky
messed
max
num
oste
ought
pic
pump
rant
rises
rational
sly
tut
tack
tumbled
tumbling
vow
vigor
wist
##ost
##cr
##com
##cil
##ration
##sop
##ucc
##ucin
##pad
##lined
##mering
##ties
##ai
##aa
##fl
##fé
##fold
##zes
##çade
##ini
thee
##eria
##ingot
thurs
##areness
shell
insec
input
beast
##uting
##utions
##etic
shery
stance
stones
stumbling
##step
rear
##hness
forest
##sel
##enting
##oooo
anonym
lif
liking
##estones
moll
knit
knack
ups
upcoming
##illa
outdo
alien
albert
chief
holy
deer
façade
##agne
unan
unra
selly
##ateur
brut
brood
spur
spared
cans
watery
plush
arched
offending
granny
gringot
fled
flor
flies
somed
everyday
twinkling
bob
boiling
boots
bolted
cloth
##uding
disrupt
slumber
contract
contrib
armrest
clipping
undercover
happier
waft
##anging
trag
philo
##weight
##wels
crown
apply
surged
preoccupied
##inty
##intos
insides
bitch
acts
carrier
##poses
begru
spec
specul
sweeping
snack
snide
conspir
relatives
##ubble
##hent
warily
flown
infli
cafe
caffe
café
complaint
awareness
marched
skip
patro
##ailed
factly
floors
irony
godfather
mouthful
paris
admin
differently
promising
treas
reference
deadp
strand
mister
figur
defence
collapse
sentences
shots
delay
squad
approve
approaches
calmer
nicely
severely
enjoyable
antics
syringe
positively
jewel
advance
221c
supposedly
drawers
drawled
hallucin
hushed
erm
erra
murmur
craft
craving
knocks
focuses
puppy
burner
drags
discreet
madness
##inese
uttered
##untarily
circling
testament
authent
fixing
risked
artist
smelled
stripped
magnifying
filth
repair
equerry
specialist
narrowing
fasc
uhm
considerably
ensuring
petite
petals
conclusions
colourful
poorly
protecting
frost
lux
persist
embraced
flinches
occupy
samples
defend
delicately
enveloped
technology
cupboards
intensely
faintly
ticking
stabbing
curtain
laden
ladies
inhales
arguments
gardens
adjusted
measured
portion
fussing
grunts
contrary
candles
retorts
statue
cyn
consequence
collecting
creepy
hunting
tentative
scolds
shudder
movies
employee
passengers
pursuit
mantel
intentions
fulf
haunting
spectac
reserves
purchase
duvet
stuttered
gender
tidy
absentmind
dawned
wizards
deleted
established
gauze
senior
impercept
unsettling
troubles
##0o0o0o0o0o0o0o0o
dazed
isolated
nuzzling
seizure
fiercely
dangling
persuade
cereal
intricate
gravity
substance
adopted
exercise
vomit
solely
clumsily
mouthed
narrative
subsided
cauld
gossip
impassive
canteen
fizzy
marathon
challenges
unwavering
bemused
champagne
insignific
microwave
mcginty
cemet
numerous
thursday
gringotts
philosop
caffeine
14
29
actor
cad
cct
cult
eileen
fits
fitted
fangs
hating
kate
mou
mhh
nail
oll
ping
pang
pony
raging
rays
sisters
tug
wret
wires
yel
##hd
##hi
##od
##og
##cl
##cut
##cle
##ev
##eing
##ube
##dro
##dream
##lied
##vation
##ya
##bon
##ias
##iably
##top
##terson
##tray
##xious
##ximately
##inine
##edict
##ingham
tob
##eshold
thy
##arre
##itable
hack
beard
beau
beaming
##lep
##lement
##idance
stain
stag
steth
asse
jolted
rey
rect
anat
##roll
##chairs
fract
framed
dogs
shine
shane
shrugging
liar
liam
##icity
##icably
##icorn
upside
outb
##usible
alike
noon
nostal
chor
channel
chinese
lever
##riett
goal
smack
smashed
holl
deposit
fand
##ags
handling
teap
unhe
unicorn
seal
semb
rod
##atement
timid
load
lovers
lobby
brushes
manila
spook
spying
spits
canon
quizz
plag
pose
offence
flare
flirt
welled
proceed
blamed
disgr
disinterest
slick
daydream
vel
vein
fob
glaz
clad
emelia
emails
##assad
respected
peer
trash
void
cram
surm
surrog
adored
adara
adhd
##ggage
prey
perplex
##olas
##olves
parting
interven
cursing
swat
pajamas
##mock
##moil
signing
streaming
untouched
shove
hearted
obst
vivid
guidance
quicker
matthe
cord
soften
softness
##azz
harring
asset
complications
ours
surprises
marrying
##ember
invites
quieter
patches
patterson
accus
accuses
irr
winds
winding
exploring
mouths
adminis
bugger
trigg
mothers
uncles
drizzle
prominent
refr
refuses
bloodied
touches
crop
dammit
committing
lowers
menu
password
proto
schools
##phones
approximately
engro
##quel
footage
charged
charlot
inspecting
burying
antib
emptiness
barking
horiz
apologised
sunsh
strongly
err
pays
kidneys
recognition
wednes
##berries
scrunched
threshold
shocking
sweetly
threats
madman
shirts
limits
widely
huffing
fucked
stupidity
unease
brace
conduct
lawyer
devices
sufficient
connor
cupped
processing
ambassad
repro
annabell
dismay
chapman
penny
claims
discussed
profession
basis
groaning
irritably
appreciation
denied
explode
blocked
bills
clutches
2016
sandy
freshly
shivers
pathologists
fleur
luggage
mainly
precision
steadying
wander
dimmock
prayers
literal
saluted
summoned
guarded
williams
estate
teenage
alarming
peek
techniques
ashtray
concentrate
crucial
neighbor
sneak
traumat
traumatic
ticket
##scape
disgusted
jerks
wildly
depressing
tended
terrorist
monitors
duties
scheduled
increased
transformed
purely
bastards
poisoned
opinions
retrieved
mastermind
links
pouting
documents
faithful
satisfying
creep
telephone
whirled
communicate
lengthy
rumpled
displayed
venge
shuddered
envy
hence
deceased
crisis
frequent
yawned
ventured
stalking
unrel
tissues
astonishment
intimate
claiming
reassuringly
judgement
buckingham
villain
hooked
receptionist
typically
expertise
commitment
psychopaths
complaints
grieve
resolved
gunshots
turmoil
permanently
establish
inexpl
distinctly
indulg
forbid
reminiscent
seizures
##00000000
farewell
lazy
impecc
assessment
escaping
owl
succeeded
pronounced
baffled
serbian
deafening
convey
deprived
diagnosis
dignity
handcuffs
seventeen
yanked
ankles
chamber
tantrum
sterile
unmist
scheme
incapable
wrigg
plastered
disorder
confidant
presumably
anniversary
youtube
unpredict
cocaine
grumpy
disrespect
tragedy
appetite
sherylyn
someday
filthy
fascination
absentmindedly
insignificant
cemetery
cctv
stethoscope
nostalg
teapot
semblance
administered
charlotte
sunshine
wednesday
annabelle
13
bind
baked
bache
cath
cpr
crib
dy
dot
dent
dumbled
fanc
fumbled
fund
hound
hilar
ming
map
mouse
michael
nicked
nah
owed
pir
rin
rick
ruck
raining
ruse
tum
tens
vest
ware
york
##hake
##oly
##kers
##ris
##rent
##rical
##sen
##pha
##pired
##lishing
##vy
##born
##iors
##mes
##made
##tt
##aver
##alow
##nn
##norm
##inf
##erting
##eries
##erity
##atch
##atri
tones
##iser
heap
thir
thump
##lley
##armed
##ckled
hiss
hissing
haunt
##loto
stumble
stacked
stitch
reper
johns
##urbed
atmo
##irus
doomed
sha
shap
soil
soph
liz
neur
##amble
mold
moloto
wears
##ustri
intru
chilled
abnorm
leaped
lemon
conver
exited
hovered
handy
handwr
unl
united
##race
feb
feat
brains
brimming
orche
ench
likelihood
spins
spilled
quote
overall
overloo
##igning
coax
cozy
downward
downright
##ddy
scary
scathing
##ndering
##opoly
flip
flips
flashes
proposed
prolong
##athom
bol
boil
bollo
blat
blouse
disre
doorbell
deter
contented
##pelled
dial
clam
clip
clapped
clued
resisted
peck
peers
pepper
phoned
crashed
##emic
##apers
prem
##quis
##quate
perception
peripher
##olic
##izable
realises
ohh
intercept
curl
stride
swam
##cient
snip
strewn
heartless
obj
talks
matches
instance
serve
##ertion
reader
##ubby
suppos
suppressed
supplied
monopoly
compliments
slower
believes
rung
incidents
understandable
evac
accum
floorboard
##sphere
possibilities
iron
anguish
traitor
admon
admir
tripped
booked
counts
uncont
coats
references
planet
solitude
hurtful
##elitis
acid
meds
defle
greatly
appearances
tightens
chokes
##phook
squinting
highlight
creative
effectively
perfection
speakers
straightens
clearance
jobs
sussex
conversations
foods
victory
colin
barre
unsur
unsolved
euros
fights
requires
ranks
expose
opposed
label
nativity
erase
kidn
dearest
screw
impul
buildings
gifted
pupp
generation
dragon
202
independ
disclo
disclaim
madd
madam
util
prepar
grips
griphook
cease
grimly
involve
hufflep
spotting
##guard
captiv
removes
seriousness
privile
##cript
rounded
releases
wider
souls
shades
scarce
woods
powder
dismant
culpr
trainee
regrets
sniffs
sniffled
billson
gloved
daft
publicly
sweater
pathology
responses
protests
clenches
declares
pitch
guardian
belongs
valuable
fortune
horribly
peeked
commands
meaningful
stabbed
heater
sparkling
speedy
##books
disbelieving
inhaling
swears
explosive
flooding
increase
dreaded
shuffle
organized
witchcraft
candy
bounced
departure
june
whirl
cheerfully
clicking
neighbours
reviews
updated
shuddering
gulp
implications
adamant
maintaining
stalked
paramedic
digital
scientist
manipulated
inspiration
swirled
pursue
cheekbone
virgin
reverber
competition
crawled
patterns
kidnapping
encountered
flourish
soothingly
dilated
fiddling
loyalty
tangled
appealing
ominous
##omyelitis
clumsy
indignant
partnership
scrutiny
stifled
reunion
plucking
augustus
trolley
platonic
plopped
rugby
congratulations
budget
compromised
impending
achievement
alternative
copies
minimum
duffle
underwater
temporarily
development
goog
blasted
puddle
september
uncharacteristic
woollen
slurred
rifle
rattled
toxic
ushered
indifference
cabinets
thirteen
rebu
laboratory
bookshelf
insufferable
laura
amazement
bungalow
upturned
unnoticed
glistening
demonstr
neglected
dunno
osteomyelitis
brooding
##intosh
cauldron
outburst
fandom
surrogate
matthew
horizon
unmistak
bachelor
dumbledore
atmosphere
shapes
molotov
handwriting
hufflepuff
100
25
45
aqu
bile
bark
buff
cri
cage
ding
dre
ecc
fib
fading
foul
gary
gaining
horm
icu
jet
kerb
lest
lust
mish
mount
nie
nation
nsy
phen
piled
pilot
ray
rip
ragged
sin
sedu
sized
tet
tire
tilt
tanned
tatt
vice
vase
wan
wire
zom
zip
##oot
##overs
##ogen
##clo
##rics
##sions
##uate
##uating
##uits
##pack
##done
##dges
##lim
##lind
##lers
##yielding
##bul
##bread
##iving
##nected
##gest
##worthy
##10
##zens
##hem
##ndant
##ato
ton
##ishness
heck
helm
##arad
##arch
##itan
##itled
##rehens
hail
hailed
washes
##otes
ongoing
sherl
stor
whit
whine
whims
##cend
##enth
##urer
##urry
##ctic
ane
##child
france
notifications
shoo
shred
##hern
##amic
##ppled
mocked
knitting
weaving
##illusion
outward
intensive
##anta
sug
sucks
lect
conj
saun
exter
exting
exposing
exquis
backward
backpack
justified
sme
facial
unco
unner
unste
unmar
unyielding
roar
feeding
seeping
lod
loathing
##istr
orph
spaces
cancer
overc
plants
poised
posh
coma
compress
copper
arts
grant
gree
##pling
##placed
scur
scuff
scones
##oph
flame
flushes
flurry
prodded
booth
muggle
disillusion
doorstep
##mentioned
brew
immo
imply
veget
contam
foster
glue
glued
armchairs
dipped
dizz
dizzy
firing
clipped
clench
eman
financ
##achment
##assing
##asses
resulting
resume
whereas
appalled
applying
leftovers
ade
designed
attire
wrinkles
walt
newborn
interp
interject
flattered
strateg
sweep
swings
workers
holder
talent
silhou
confron
breathlessly
##erted
relation
warn
infin
hargre
assessed
assessing
cafet
calend
monolog
complied
replacing
metres
skipped
skipping
patron
##elling
possess
sleepily
farm
dropl
paran
##avirus
expects
excused
regained
eased
eastern
reasonably
tricks
council
drip
drives
hospitals
preser
medics
medium
breakdown
defens
defined
##cussions
wordlessly
shortbread
babbling
squinted
creation
graciously
recovering
efficiently
priest
gunfire
bury
landscape
secretary
colors
briefing
unsaid
lively
horrors
hitched
growl
profound
sunset
expand
##aneous
craved
sickening
impuls
escal
legit
recognizing
generations
hesitates
panicking
thrum
tenant
published
hangs
contacted
noticeable
practise
cement
##untled
involuntarily
directions
agreeing
##iotics
classroom
torch
emotionless
posts
tested
autumn
norbury
regards
battered
flowed
articles
idiotic
scarred
britain
strikes
unforg
pleasantly
magnific
camarad
shooter
discovery
stretches
supermark
undone
confirms
futile
locations
consideration
sniffing
centuries
langston
langdale
imminent
temples
lunchtime
##hyd
bursts
witnessing
pinched
bottoms
mercy
embracing
scratches
reflecting
recorded
hyper
sample
defended
fortunate
weirdly
alarmed
peeks
soothes
introducing
martin
cushioned
massaging
gleaming
divor
hmn
tenderness
##grav
dismissal
tabs
tables
occurrence
measuring
impatience
tasks
tortured
boarded
betraying
gravely
stiffened
intrigue
arsehole
product
produced
thousands
strawberry
observant
autopsies
cyber
cylind
glowing
weaknesses
clueless
colorful
aimlessly
essence
emerald
berated
germs
complexion
criticism
yawning
venture
degrees
feedback
nauseous
melod
referred
tinged
astonished
nudge
nudged
fantas
napkin
delivering
gingerly
political
stutter
sympathetically
pipes
##raine
goddam
lunged
coronavirus
indignation
innocence
gauge
snarled
troubled
customers
tiniest
pondered
tradition
meltdown
confrontation
boldly
inconvenient
inconvenience
acquaintances
accomplish
safest
claws
fretting
wealthy
bluntly
resolutely
phillips
duffel
weighing
museum
serbia
temporary
##shjwshjwshjwshjw
goose
license
quarters
cringed
vivian
incompet
unfolded
electricity
conceded
##iatr
intimidating
inherited
serviette
petulantly
pancakes
oversized
absorbed
palpable
subtly
sixteen
nestled
deftly
vendor
condescending
precautions
rachel
guarant
immensely
enormous
maternity
casserole
mischievous
wistful
anonymous
clippings
tragic
deadpanned
cynical
philosophy
ponytail
wretched
assemb
reyes
disgruntled
harrington
irrational
engrossed
ambassador
inexplicably
warehouse
repercussions
accumulated
disclaimer
phenom
tattoo
exterior
unsteady
confronting
hargreaves
cafeteria
calendar
monologue
camaraderie
21
23
afore
akin
biz
bait
bubble
cer
cert
categ
dine
dashed
eth
fer
gid
gained
gaw
hoo
hart
ire
jason
jury
kidding
mig
mick
mumbling
napp
porce
piles
puffed
pooling
rows
ripping
santa
tide
tumb
tires
tipping
tumble
wits
zis
##kill
##kno
##ees
##eled
##eenth
##sl
##ux
##ulf
##diac
##lain
##vas
##voc
##bid
##bone
##bled
##bach
##iance
##iantly
##met
##mic
##teen
##tails
##nut
##nie
##gan
##fol
##inal
##edy
towels
heed
heath
##esy
thri
##asion
##arian
##itched
##aned
##anch
inject
inaud
hailing
hazy
halted
##lome
##imand
sherwood
##idull
##idote
stake
stink
stains
asphy
##stream
joins
reic
reign
reiter
whipping
fores
##section
##entive
##entric
##iry
dozens
##eee
shone
ships
shamp
shield
sober
lily
licking
myers
isa
melan
##amous
##amper
##amol
##icit
##icide
outstret
alas
alight
alter
chir
chimed
##abilities
sung
##rian
backing
backside
##kew
hobb
hobby
fails
wors
handled
handles
tending
unin
unse
selling
rocked
roots
yourselves
loses
##isty
manor
manic
maneu
theme
sput
poly
poke
poked
comr
##ptic
cobb
##ouring
evenly
##itters
##ittens
grit
grade
scoops
prat
flou
flannel
prop
##ructive
blessed
holmer
doorframe
doorkno
breach
slaps
impart
chew
longed
drained
drenched
fol
glares
leth
dict
dials
dialled
clich
emitted
resur
residence
resuming
pecking
handshake
comeback
leftover
helpfully
peril
actively
##anches
morp
morbid
##ounce
##liest
interm
curved
lasts
##point
sweeps
behaving
##rowing
laun
streaked
heartedly
roses
steam
consume
smallest
idly
understatement
relig
##henbach
stoic
infusion
assign
monst
complains
marble
margin
incor
incess
kitchenette
metall
evans
concuss
entitled
mustn
muster
ironic
angles
##nosed
raven
questioningly
lists
indu
bookcase
county
addled
chris
terse
coldly
christians
defect
warmer
lesser
kinds
kindness
commission
commotion
passage
##iculate
comforted
imaginary
cheeky
cheekily
polished
affir
affront
crew
creak
graham
effective
edged
##factor
footprints
charges
signature
fourteen
paled
grounded
antagon
antidote
synd
syll
##ervation
rubber
barr
unsub
dinos
brightness
##holome
relieve
stroll
furthermore
strongest
##ologist
transpar
sights
legacy
hesitating
##olution
winning
winces
countdown
threaten
dreamt
reveals
destructive
sensible
invested
motions
uneas
auto
bartholome
cardiff
rounds
widening
lacked
risks
##gressed
articulate
potions
encomp
relaxes
unfo
distracting
servant
clapping
resulted
awkwardness
scotty
supportive
bleed
bleak
sinks
sleek
central
illeg
ensured
cooked
papa
thickly
clutch
pinning
hamidull
sweats
variety
treats
lounging
trembled
furrows
kneels
identifying
driveway
hiya
occupying
defending
radiating
fifty
switching
explanations
tricky
trickle
trickling
introduction
storms
stormy
bruise
blurted
animated
delightful
bandages
verb
newspapers
debacle
swearing
explosives
flood
transform
kingdom
organised
ghosts
##aunch
sociopaths
contemplate
contemplating
affecting
affections
##jama
exhales
haste
heaving
starving
feminine
fatal
whirling
whirring
rumours
teacup
attendant
weapons
resistance
bitterly
essentially
stirring
steadfast
inevitably
berth
coos
coolly
withdrew
sincerity
dishw
travelled
maintained
ultras
stalks
praised
praises
##chel
broadcast
manipulate
swirl
arrangement
nudges
cradle
hostage
gleeful
##jwjw
clouded
insistence
snatches
crawling
duo
improvement
biological
associated
discharge
translation
scratchy
lyc
padded
plausible
scrub
katie
wisely
emphatically
restraint
stifle
illuminating
homicide
forbidden
scalp
zodiac
leaping
qualities
skirts
wisdom
breasts
diplo
descended
memorized
forgiveness
escapes
whimpered
succeed
hoarsely
bubbling
fictional
##euv
incomprehens
##oxoxoxoxoxoxoxox
reprimand
aggressive
unbelievable
sparks
disheveled
pandemic
thighs
stimul
reliable
recommend
strictly
drainer
helplessly
mercen
announcement
tiptoes
legend
slippery
vocal
gym
scouts
monotone
snarky
recruit
renewed
theatre
robbery
writers
junkie
knackered
patrol
figurine
rectang
chorus
velvet
perplexed
antibiotics
unpredictable
hilarious
thirst
abnormal
bollocks
cluedo
supposes
unsurpr
impulse
puppet
whirlwind
eccentric
helmand
storage
exquisite
droplets
magnificent
supermarket
phenomen
aforementioned
giddy
hartwell
porcelain
heathrow
asphyx
reichenbach
shampoo
cliché
concussion
affronted
transparent
bartholomew
hamidullah
ultrasound
ay
aur
apt
aloo
bid
bay
bully
bumping
cin
cit
cuff
cia
dill
dab
fished
filed
fades
fools
fumes
gc
ger
gust
hust
hire
ii
icing
jay
jess
jars
lent
lee
lame
lens
lav
milling
nim
ol
pall
pear
pars
pomp
rim
rival
sins
sane
tiled
taps
taped
tainted
vain
vary
vowed
wither
##ointing
##oeuv
##cated
##cating
##rs
##sight
##uu
##phe
##dle
##dia
##bl
##min
##mpt
##ti
##apt
##nered
##nounced
##grap
##ww
##iner
##inations
##inished
##erably
##inges
##ativity
##atoes
tons
##esome
##orious
thu
thai
##arium
##itate
##itating
inapp
injected
##rend
halting
hazard
hapha
##oma
beet
beach
bells
beads
##utton
##etal
##etab
##etamol
##oting
##otely
sherly
##idy
##idal
##idates
stature
stumped
stinging
staunch
##stru
##stance
whip
##cel
##seat
##adv
##enties
##verb
ancient
##rose
doyle
shh
shards
socially
licks
nephe
##esthetic
##ici
##icable
##icament
weetab
##uset
alib
altered
intu
nostr
chart
chili
##abled
abst
conan
conco
##onel
extern
smud
factor
##agu
##agers
agon
uno
unch
unru
unwe
unused
unatt
##owned
sealed
ropes
##ategy
intoler
fearing
##istine
branches
manif
maniac
manoeuv
##unching
enfor
spag
quipped
werew
plum
comply
compelled
##ptions
coal
##pert
donor
donned
grind
headboard
##acious
##acies
##acco
##acetamol
score
scans
##opened
pristine
flas
flav
welling
wellies
proposal
progressed
twinkle
twenties
##udes
rightly
disp
remotely
slack
slugg
slouched
longs
fox
hassy
##pels
diving
diogen
clatter
resid
resour
resident
residents
pepp
trance
##iphan
crumb
crushed
crushing
cramped
adul
adapt
desires
descent
attachment
percept
perme
wrest
wringing
fewer
caressing
lifeless
##ounted
curry
curves
flatly
retal
strum
swim
switches
decre
decom
decipher
snake
snakes
snacks
##mod
##mond
elim
endured
hearth
heartily
pleads
obt
obno
confusing
confines
mathe
##cedented
restore
painkill
relishing
floated
infamous
bloods
hurries
awfully
awesome
secondary
showered
meticul
distantly
distressed
entang
darkening
whisky
whiskey
irres
farintosh
recons
meetings
parl
param
parks
paracetamol
killings
admiring
expressed
trek
visual
refres
solitary
household
throbbing
cutter
sweating
swelling
community
deductive
##ivan
jumpers
threads
purred
disappointing
extending
creaked
recoll
watchful
engulf
straighten
musings
grounding
dada
bedrooms
subsequ
offices
officially
senseless
emptied
jewell
obsession
colon
colonel
unsc
horrend
apologising
apologized
apologizes
halls
halluc
sharper
##world
siren
profiling
husky
expense
birds
nursing
definition
paths
panel
tenants
countries
examines
practition
construction
limped
limping
urging
urges
foreheads
beautifully
stupor
locker
directs
##annels
agreeable
physician
classic
effortlessly
unequ
privy
loop
##brush
condu
battery
widower
fixation
risking
lapse
enclo
exhale
damnit
observes
woodley
countertop
supernatural
attacks
angels
irritable
keyboard
##choly
finality
considerable
##cular
birthdays
illusion
inquis
petri
crystal
poorer
climbs
gloom
tasting
cluttered
revis
risky
punching
remainder
vari
addressing
responsibilities
capacity
grandchild
determinedly
reflect
pitman
summary
flinching
purposely
unwanted
surgeons
smarter
teenagers
issued
technician
technique
anticipating
concentrating
auntie
predicament
bruising
population
acquainted
sneaking
hmmm
tickets
warnings
epit
epiphan
disgusting
mortal
mortified
balanced
titles
accompanying
hundreds
machines
tendencies
spiral
monitoring
dutifully
increases
adjusts
operation
operated
portable
portug
unbutton
contentment
instructs
battlefield
contrad
stressful
abandon
gapes
mills
negot
exhib
quirks
strawberries
hasty
heaved
celebrating
rumm
videos
scolding
graduated
tremors
updates
intentional
steadied
venue
retreat
entertained
traveled
travelling
ventil
stubbornly
stubbornness
digs
buzzed
addicted
tempting
cuddling
tinge
bucket
westlock
insulted
beeps
moonlight
delivery
adults
robert
scrambling
navy
griev
surviving
vitals
garage
associate
acknowledging
teachers
dedication
teddy
tags
sacrific
taunting
##security
sulk
sulking
pondering
motivation
dominance
restrained
swayed
swaying
mockingly
wheezing
illuminated
jokingly
isolation
shoebox
suppressing
nuzzles
zoom
snickered
eliciting
elicited
smoothing
frustratingly
apron
lazily
compromise
scraping
exceptionally
astound
unimpressed
civilians
navigate
rasps
shriek
quarter
repres
sparked
dishevelled
conflict
puddles
entertainment
attentive
dissipate
uncharacteristically
dubious
hindsight
vaults
blazer
consistent
serviettes
tubes
hopkins
accounts
tipto
mechanical
unmoving
podium
nickn
debrief
enquired
crutch
invalided
individuals
veteran
rewarded
rescuing
heartbreak
cornish
constructed
apprehension
succumbed
unprecedented
auburn
australian
maths
rattle
##dgingly
depends
enlighten
underestimated
intertwined
saddened
mirrored
balloons
butterflies
subconscious
maxim
unannounced
unrave
brutal
begrudgingly
inflicted
discreetly
glazed
reprogram
pirate
disreg
snipers
floorboards
uncontroll
culprit
google
mountains
orphan
immob
vegetables
interjects
divorced
cybersecurity
incompetent
guarantee
bizarre
inaudible
isaac
melancholy
outstretched
doorknob
morphed
aloof
dillard
leekey
varying
haphazard
weetabix
unwelc
manifest
hassya
diogenes
hallucination
epiphany
000
26
38
31
73
ao
bach
bins
bash
bitten
bump
bumble
cac
cue
cub
cuffs
dur
dus
dated
dough
dorm
elo
era
fakes
fert
ferv
filing
fooled
gee
gna
jot
keeper
kitty
lion
lac
lace
lids
mg
mes
mee
mile
mcken
nit
nich
nigg
naming
od
oun
obe
pag
pins
paces
panting
rice
ridd
rails
rabb
tee
ticked
va
ves
vit
vile
wig
wars
witches
wolves
yow
yay
zones
zero
##hor
##hall
##hire
##hift
##oon
##con
##care
##cence
##cara
##rh
##rard
##rise
##rils
##sack
##uf
##ups
##uished
##pan
##pher
##dling
##dka
##list
##lining
##lett
##lestones
##vity
##yp
##bor
##borough
##ipper
##mony
##net
##gor
##war
##writ
##worth
##flow
##form
##xed
##99
##zer
##zie
##hever
theor
##eded
##edge
##ndy
toying
##isure
##isons
##orically
##orrh
thief
##enching
##asher
##asms
##anic
##anks
##anini
inha
inacc
##recating
##omical
beth
##eters
sty
##still
rely
reapp
reject
whic
whines
whining
johnlock
ana
##road
##roph
##ropriate
##chant
##champ
##fts
shin
shim
liver
libert
myth
myrr
##estyle
##amation
##icious
##icron
##icians
mole
weig
##ilib
##usal
intact
nois
novels
chore
chise
chubby
channels
sum
abom
abras
abroad
lew
leisure
conso
sagging
##rium
exceed
exagger
backst
backseat
smear
smugg
deception
dehyd
agitation
aggrav
##hedral
unke
unint
uninterest
unacc
sell
seized
seeds
feline
feigned
timed
logs
lodged
brat
brist
brink
manuf
orb
##asters
##unning
sped
spong
canad
canvas
quant
##ffered
##inks
##anda
watering
plung
tools
coy
cob
coded
arth
aroma
wholly
evenings
donav
grain
grud
gruff
grues
grunt
grumbles
headley
greene
scale
flared
proverb
proffered
needless
##ruary
twinge
blim
blunder
rights
dispar
displeas
disadv
brewing
slung
slurs
amateur
cheated
chewed
daylight
gliding
undert
##achi
##achuset
wavering
vodka
##code
starters
crinkled
owners
adore
desks
caller
pert
perpet
voicemail
##olve
insulting
insurance
insurg
wales
blooms
carn
carved
smiley
careless
curve
##pod
speeding
streng
strategy
swive
swoop
##ciating
behaved
decline
decency
snuff
courting
sigerson
plea
giant
miniscu
viable
guided
soundly
consisted
consciously
matty
restlessly
standstill
latch
relished
##ordin
fingered
playground
infat
hairs
harpo
bodyguard
assorted
catast
cathedral
caution
deepening
replaces
closeness
murky
march
marking
income
inconse
metaph
sket
patter
patos
patio
##elled
entr
darkest
possessed
possession
angst
angular
##tenance
##ends
recre
recited
##logue
humid
tracing
paraly
expectation
easing
easiest
trials
experts
industri
motherly
compare
compose
compens
refrain
chronic
solar
securing
mischief
completing
deference
warming
kinda
badge
##ivar
##ivable
chopper
makeshift
shorts
pursing
##phony
squared
glassy
glassware
crease
creaking
creates
creases
approved
weekly
layout
prize
forgave
checkout
straightfor
##irts
latex
musgra
dealer
freeze
advised
ordering
barg
truthful
whiteford
strolled
trustworthy
growling
guesses
sunrise
suggestions
doubled
stomped
skinny
mascara
worriedly
positioned
elements
##uese
generous
throt
throne
thrashing
littered
publishing
discour
threatens
searches
benefactor
freckled
mobility
grimaces
involves
involvement
prevented
fingerprint
presenting
torment
circled
injust
detailed
privately
receives
crackers
condol
devoid
laptops
beginnings
potter
potatoes
cupping
strip
striped
stricken
distractions
films
tugs
investigated
repet
suicidal
imposing
province
provides
equilib
ruining
supervision
superiors
attacker
miracul
basics
undo
ledge
supported
supporting
##parents
locate
moods
sleeps
spreads
preferable
opted
photograp
psychotic
immune
gloss
symphony
2014
nervousness
chaotic
reporting
spends
pinch
romantically
splut
splash
splashing
dancer
merci
protesting
clarify
clarifies
literature
grandparents
skilled
purposefully
typewrit
hypo
unworthy
estee
scowls
radi
radius
internally
distractedly
pulp
steely
prompting
castle
buttoning
authorities
mixing
storming
neighbors
sneer
sneakers
tickle
motionless
massachuset
windowsill
coughs
debated
debating
balm
coolness
jerking
jerrard
multi
tendency
tendrils
spirits
tablet
tablets
increasing
tuned
measures
shuffles
corridors
fussed
##aunt
squeak
stiffly
analyze
bounce
exhaling
quirk
snowfl
cycle
intervention
averting
darlett
junction
rental
fluids
clicks
celebrated
rumors
frightening
teacups
urgently
glimpses
girlfriends
oxford
alerted
graduation
reviewing
intentionally
seasons
feverish
enthusiastically
shudders
critic
adoration
priority
strangled
collapsing
facility
experiencing
cuddle
incredulity
tingle
heroin
stunning
astonishing
manipulation
ducking
nudging
diagnosed
cradling
adoles
novelist
gleefully
unconsciousness
dumbfound
crawl
improved
vibrant
vibrated
vibrating
cloudy
awaited
accommod
dilig
tidying
eyelashes
turbul
tangle
appeal
applause
courtesy
lyrics
lydia
omicron
##stalker
spanbr
scrubs
indignantly
banks
bearings
conceal
sporting
bundled
disapproving
taunts
alfred
obligation
indulged
189
daze
demeanour
illuminate
reckless
viciously
resemblance
snicker
synt
accomplished
boost
beckoned
deprecating
phillip
minimal
scenarios
ceremony
aspects
unimag
underwear
licence
restricted
restrictions
punctuated
ecst
fueled
whistles
exercises
aggressively
interrogation
entryway
escorting
suffocate
suffocating
cherished
mourn
stimulation
execution
recommended
tactic
beeping
brooke
swiped
obscure
cooperate
dodge
unconv
loosened
battling
optimistic
renowned
wreck
outrage
legends
unmoved
slippers
calloused
misunderstanding
disconnected
hammer
bellows
reeling
debris
quivering
crutches
application
devastated
earnestly
solemnly
hicc
hiccu
kirill
glitter
awakened
trivia
trivial
nineteen
ruefully
stallion
mansion
resentment
stradivar
reddish
affirmative
undeniable
saucepan
hypothes
karachi
picn
vigorously
insecure
lifestyle
outdoor
deerstalker
wafting
conspirator
administer
errand
spectacles
imperceptibly
tobacco
beauchamp
fractured
plagued
intervene
triggered
protocol
vengeance
wriggled
dynam
mingled
rucksack
sophie
february
orchestr
prolonged
clipboard
peripheral
traitorous
kidnapp
independent
maddening
scarcely
##cloth
greek
implying
dizziness
financial
interpret
silhouette
preserved
impulsive
cylinder
fantasies
##iatrist
ethics
comrades
cobblestones
lethal
assignment
induced
barracks
unfocused
verbally
bertha
asphyxiation
gerald
nimble
parsley
inappropriate
alibi
nostrils
external
resources
obnoxious
bloodshot
parlour
jewellery
horrendous
practitioner
grandchildren
portuguese
nickname
maximum
ao3
mesmer
mckenzie
nicholas
niggling
paganini
inhale
inaccur
whichever
myrrh
weighed
manufact
sponge
gruesome
displeasure
disadvantage
miniscule
inconsequ
industrial
straightforward
musgrave
equilibrium
massachusetts
dumbfounded
1st
27
aj
aids
arose
bor
bau
bise
bidding
bitters
cunning
dv
dice
daw
dump
dagg
ditch
eer
erect
fics
fumbling
fathom
gry
gig
gidd
gaps
gurg
han
hare
hanger
hunt
hives
ipad
jeep
ki
mall
mand
mumble
mounted
nut
naught
olly
pj
pent
pant
panted
ploy
pads
piqu
pools
pumping
raz
rides
ruth
ridden
rumbles
rumbling
races
sard
scept
sings
tir
tart
tink
tying
tamper
virt
vines
wank
yank
zone
##hs
##hop
##have
##hroom
##och
##oken
##ober
##cre
##card
##cony
##comm
##known
##kirts
##ex
##riment
##sle
##ship
##pow
##pot
##pour
##pared
##pensive
##paper
##power
##lit
##lery
##lorn
##lasses
##vious
##vably
##yard
##bud
##bles
##tr
##tles
##tably
##niqu
##gone
##gun
##wear
##fits
##zel
##hell
##heter
##inqu
##inating
##erent
##erant
##eried
##atus
toyed
##isher
##isable
##isection
heft
hectic
##orient
##onent
##encing
##arn
##ariously
##arms
sheen
##itching
##itations
##itute
inade
##reat
haem
hacking
hails
haught
haik
beam
beacon
##iming
##imeter
##uther
##etically
herbal
##leg
onward
##ldom
stench
starring
ashes
##stood
joan
rein
render
rebe
repress
reaper
rewr
repressed
forem
##entine
##urt
##alcul
##ooo
atro
anstr
##rod
##rof
fraction
fraud
frigid
butler
shrou
shave
shhh
soggy
lizz
##ainable
meow
knight
knick
knitted
##illary
##ieves
outing
outlet
alb
alan
alias
##anthi
noses
chw
chag
chunk
chilly
##abet
##abul
##abby
sucking
sullen
abort
##rich
exub
exits
backf
justify
##indor
smould
hoist
hopped
##ections
factory
faux
agape
teasingly
unh
unbe
unav
unnatural
unopened
##uman
##venile
seet
searing
sequel
seldom
roam
roaring
##rawn
##raught
feigning
looming
##istry
##istics
##istoc
bron
brass
branch
mannered
orbs
##astrous
sparing
spitting
spike
splend
quar
queried
overwor
##ffindor
##andra
##ongru
##otherap
##ige
posed
pokes
cos
coins
coping
cosy
downpour
ardu
aristoc
offense
offhand
##psy
##psis
whoa
gritting
grades
headphones
greed
sciss
scraw
theirs
##opard
pram
prone
printed
turner
flail
wellbe
prod
##ledore
bluff
muzzle
feeble
righte
##akingly
dislo
disple
dislike
disposal
disorient
disastrous
slices
slapping
imbe
amy
cheered
cheering
veil
contempt
drooling
foggy
hash
glinting
dips
cler
clink
clap
clamb
clattering
clamped
underc
happiest
resili
wavy
##anges
pendant
troops
##codone
##weet
apples
appledore
owns
adj
adores
desired
##apor
prelim
brotherly
wrings
wrung
writes
##olitan
##inters
mindful
bedr
beds
##osexual
blogs
moral
morals
##ounts
##lift
interior
flatt
flattering
retain
straining
##irect
##cience
behold
snuck
snapp
sidelong
eluc
streak
homemade
minions
talents
stealth
conscience
quickened
confessing
matted
##nels
restored
sleuth
standards
serves
serene
idle
corpses
##ertime
relapse
player
hardened
##entional
woven
##azep
infl
hairline
assurance
catheter
deepest
monument
complies
awaken
awoken
closure
simmering
marvel
incentive
incongru
kegs
metrop
distraught
##osity
darkly
flooring
sleepiness
angered
##ifer
##logy
traced
kills
excess
excurs
wallpaper
bug
buddy
trips
triple
india
countenance
uncl
dripped
compound
differences
##eadily
strap
strapped
solace
couples
secured
colder
misplaced
miserably
calf
preservation
spoiled
baggy
medio
##isingly
busying
defl
default
cutlery
sorting
croaks
deduces
storybooks
##iva
##ivoc
blackness
tighten
informing
violins
magpie
schooling
schooled
purposes
purrs
extensive
delir
delayed
##icted
livingston
forgers
forgeries
engaging
charging
inspection
paler
musical
mushroom
susan
suspe
anti
##usely
subm
afar
temp
avanthi
freeing
numbness
jeopard
obsessed
advancing
barn
barging
unsucc
statements
hitch
##hoho
largest
foref
profusely
normalcy
payment
stomping
scooted
transpired
screws
largely
mastered
definite
legal
exceptional
shockingly
sweetest
publish
discern
discount
contacting
utmost
##ountable
ceased
limo
disappearance
directing
presentation
presentable
classical
captors
postp
stupidly
motives
criminology
bracing
bravery
crackled
condem
bathed
batted
folds
folders
risen
soulm
laws
sixth
artific
inclination
smelling
scarlet
experimenting
fastened
stripping
unfores
processes
filter
filming
favourites
discovering
businessman
penchant
forcefully
exhausting
narc
specialty
pours
culinary
puzzling
confirming
blend
bleary
blending
regretting
regretfully
##hetti
uhh
located
enscon
peacefully
immacul
surviv
glove
noncomm
towns
grasps
clutter
reported
variant
addresses
fleet
weariness
precip
societal
clarke
claridge
eagerness
wiggling
healthier
assistants
afghani
declar
declined
saliva
##roductive
chatted
guarding
occupants
views
unwind
unexpl
values
accidental
dulled
alarms
guiltily
prompts
buttoned
authorit
existing
disgrace
anticipate
soothe
ribbon
##oxin
##ficial
prefabs
tickling
therapists
countryside
habitual
pounded
costs
gleamed
juvenile
researched
annoyingly
sparkled
blinding
blindfold
volition
speeds
debt
debates
balancing
balcony
falter
jerk
histor
instincts
instinctive
englishman
dismisses
border
argues
operative
tunnel
smugness
cells
unborn
retrieves
consulted
ghostly
affectionate
affectionately
produce
producing
productive
products
affects
exhilar
straws
trouser
developing
celebration
tempered
displays
glimmer
indicative
##aggled
essen
vacated
updating
sprain
sprained
cooed
cooled
fragments
envision
decorations
decorative
alarmingly
bunny
henriett
moaning
deceit
crisps
surveying
surveyed
functional
bustle
performing
priorities
temptation
guts
connecting
buckle
fetched
tourniqu
unlocking
insults
fantasy
reverie
diagon
permitted
spectrum
russians
tailored
insisting
snatch
protectively
unpacking
politics
improve
oxycodone
grieving
bike
george
intensified
progressing
disdainful
##prompt
complimented
association
associates
cocktail
cocktails
applaud
translate
heavens
scruff
significantly
sheepish
islands
priceless
inexpensive
customer
lurched
porridge
rusty
rustling
taunt
sulky
dominatri
bonus
bonfire
bouts
malkin
restrain
ukrain
reuniting
sedated
reckon
melts
platform
confronted
vicious
resembled
replacement
bennie
budge
campus
tolerate
outskirts
clawed
descending
accurately
achieve
dangers
festive
festivities
tavern
toothbrush
##abbles
pronounce
resolute
participate
baffling
bubbles
enigma
vivisection
fuelled
rudeness
wryly
unstable
unsteadily
unbelievably
programme
leaflets
cashier
mourning
##iatric
innate
hawi
jolts
deprivation
select
endeavor
humiliating
education
stabilize
dissipated
flexing
nibbling
swiping
petulant
dodging
wobbled
babysitting
battles
##namon
chastised
queue
designated
misunderstood
squirmed
penetrated
scrolling
hammering
flaws
snuggled
simplest
prescribed
huddled
october
tweeting
twirled
rescued
awakening
squatted
unprepared
pedest
##pathetic
chimney
comfy
infiltrated
burglar
undeniably
encouragement
skeptical
scribbling
baxton
jennie
jennifer
species
treasured
jewelry
authentic
luxur
luxury
persistent
mantelpiece
culture
moust
ollie
stagn
anatomy
leverage
rodney
surmised
accusingly
refrained
bracelet
conducting
neighborhood
unrelenting
indulgence
impeccable
nostalgia
catholic
rinsed
captivating
rebuild
unmistakable
aquarium
dreary
hormones
niece
smelly
uncovered
lodger
scurried
disillusioned
emanating
legitimate
thrumming
migraine
thrived
chirped
resurf
religious
incessant
metallic
uneasily
illegal
dishwasher
cinnamon
pompous
tonsils
##iciency
unruly
spaghetti
longsdale
adultery
mathemat
painkillers
parameters
unequivoc
conductor
inquisitive
unraveling
haphazardly
gnawing
ounce
vessel
reappear
exaggerated
proverbial
blimey
condolences
typewriter
turbulent
ajar
bisexual
bittersweet
daggers
eerily
gryffindor
giddiness
piqued
sardonic
haemorrh
haiku
foremost
anstruther
lizzie
##abulary
exuberant
unbeknown
splendid
overworked
arduous
scissors
scrawl
wellbeing
imbec
preliminary
elucidates
metropolitan
avanthika
unsuccess
artificial
ensconced
noncommitt
henrietta
tourniquet
dominatrix
90
ax
ain
ale
aft
aust
alder
bould
bum
bake
bared
cumb
cumber
dive
dys
dank
dna
drying
dances
daun
dagger
eld
fence
fainted
ging
gore
gav
hides
ic
iq
jing
jit
jade
kand
kilo
lan
lane
lashed
lashing
mould
mack
mound
maz
maker
mittens
nin
nort
native
nik
nhs
ou
ost
pd
pf
pas
pse
pil
pash
pets
pane
pilar
pizz
rou
rous
rigg
rips
sid
sab
surn
sift
tile
tous
tank
taut
vall
wield
wives
yup
zere
##hak
##oe
##oy
##of
##opp
##off
##opters
##cers
##cous
##cla
##comes
##kn
##kland
##eer
##rith
##rome
##sm
##sage
##uv
##uper
##pit
##pid
##dar
##leton
##leness
##vis
##vised
##yl
##yss
##yrin
##bes
##bee
##bic
##beth
##bumps
##batch
##iver
##iuses
##mies
##mountable
##tie
##tale
##aire
##ga
##gul
##wall
##wined
##wright
##jured
##hero
##erick
##ndo
##atis
##athed
##atible
topp
##isive
##ora
##oral
##onom
thieves
andrew
##llivan
##asive
##arity
##arming
sheila
##itively
##anut
inane
ingr
injection
haul
hazel
##oman
bever
beans
befriend
beakers
##imes
##imen
##imore
##imso
##imsy
itch
italy
onsl
##ida
stur
steep
stump
stacks
stitched
asce
asper
ascending
jose
jolly
jogs
jogging
rejo
reels
rejected
rebell
##celer
##ceeding
forlorn
##sey
##ado
##adays
##urally
##urmountable
##alg
ath
##irted
anch
anne
##chment
fres
fren
friv
framing
frayed
frazz
fruits
dolls
dozed
##eeable
sham
shrap
shaved
shatter
shabby
sock
socket
lick
liber
livid
neared
##ests
##estry
ish
mend
meand
melting
moist
moss
##ilarly
upbr
##ills
outcomes
##ussed
##usque
##usional
##uscript
alic
alph
altering
alerting
intr
intra
intub
##antom
noble
chic
churn
chained
suck
sullivan
abig
abused
abyss
leash
conting
convenience
sale
sagged
##ria
##rior
##riers
##riages
exile
exists
exposure
exertion
allev
backup
gob
##ersed
smacked
holly
hopping
hodges
deed
deck
degr
deigned
##agram
aging
eyero
unz
unac
units
unpert
##ulate
##ulous
##venport
seize
sepsis
roles
rooted
##raph
feature
lol
loomed
loaf
brack
brittle
brusque
manuscript
orn
orth
##unge
enr
spouse
sparse
spider
canister
overre
overse
overtime
overcast
beforehand
plume
plague
planted
plimso
##igr
##igs
pole
poses
ponders
poisons
comic
composing
composition
##ptured
coco
cogs
nowadays
##oodle
##ousy
arc
arson
arise
offensive
dont
grated
grumble
grumbling
greasy
##aco
scaring
scares
scooping
##opho
##opilot
prow
prank
afterth
##inea
flag
flair
flap
flitted
flapping
flipp
flimsy
proves
projection
needn
##ruciating
twists
twitches
twinkled
boast
boiled
booming
bonded
cloying
blames
blades
##through
dise
disemb
disney
disheart
dispel
dispat
disinf
disabled
##feit
detox
slicked
slicing
sliver
impr
imprompt
amalg
chews
contest
droop
foyer
glory
glorious
##peare
##pelling
dipping
fires
clay
clav
underworld
##lty
emitting
finest
goods
betting
resound
reserv
wail
user
pecks
peanut
peaco
trim
trading
phantom
voiced
##cogn
startle
crumble
crumbling
beings
##ggings
preced
prequel
wracked
##olent
##intend
insurmountable
mindlessly
blokes
##ancies
##izer
realm
moron
morose
##lius
curs
lasting
##poke
begs
retching
strut
strung
strains
##irected
##umbered
swooped
workplace
snoring
snacking
courts
endear
heartache
nightwing
ministry
steer
guides
guinea
silenced
consists
confided
confessions
lighten
famed
corro
cords
softest
latin
relaps
relinqu
##ordia
##ordinate
hardship
warrior
suppertime
satan
satchel
float
infest
infect
infused
infected
haircut
persons
personnel
minutely
harriett
asshole
sorcery
caed
monarch
slowing
similarly
runny
mari
marve
followers
invaded
invasion
showers
metre
skimmed
##ceptive
##ceptable
understandably
quieted
evapor
disting
distrust
##ysm
entwined
accents
remembrance
irked
fallout
farmer
winded
rav
raid
rapt
reclined
parall
parap
parchment
excruciating
casc
wallowing
regent
regaining
registr
listed
earliest
easter
indig
indirect
##portant
counsell
laps
lawn
geniuses
expressing
expressive
tread
treacher
airway
hopeless
hopelessly
ignite
refined
refusal
chron
straps
solves
solutions
boyish
##ixed
miseric
despicable
spoons
acade
acute
acerb
acceler
medically
medev
breakthrough
define
blooded
expressionless
swell
drape
collective
colleen
croaked
sentiments
lowly
storyline
tightness
passport
passcode
entirety
functions
##emption
pocketed
purring
formally
cupid
##phant
babe
comfortingly
delved
delusional
creativity
graced
topics
tomato
approving
efficiency
perfected
muted
mutually
norms
##factory
##ernet
##ernal
##ernation
##ernuts
engra
workings
enjoyment
signals
signalled
burrowing
muses
eats
substances
lands
demise
secretive
christmases
coloring
reacting
barring
unshed
murderers
horn
horses
hallways
hitching
leader
strolling
ranked
labs
labyrin
eras
fearful
mistlet
kidney
mentioning
scoots
##ologically
craig
craph
crazed
knob
transition
screens
crossword
commentary
controlling
impish
tiredness
recognising
recognises
elephant
yarders
##shit
##ceiving
shocks
husbands
dragons
litter
indef
packets
hangover
assumes
policeman
##ignified
utility
freaking
limply
correcting
physi
handedly
fuckin
uneven
brav
autopilot
rainy
cardiac
receiver
looped
crackling
##bridge
batter
ahh
##grown
forgets
sufficiently
potent
unfinished
ambition
apprehe
cambridge
investigator
##ahar
annie
unclear
favoured
faulty
penit
penrith
gathers
superhero
superintend
mirth
##othy
necessity
bullshit
undet
undignified
beats
regrettably
considerate
appreciative
illustr
china
exploding
petty
concluding
preferably
psychology
immersed
billowing
global
coverage
davenport
revo
revolution
punish
punches
sentimentality
empow
employed
jaws
pinches
tiles
splayed
splinters
frog
lucy
lukew
merrim
willingness
groups
pageant
dimin
ambulances
ballroom
persisted
clarinet
wiggle
literary
kneel
kneeled
grandfather
manageable
assisting
hatch
tongues
separating
languages
sales
saline
salary
recorder
subjected
jeannie
summon
occupant
occupational
##rogen
hyd
taxis
valued
describes
landlord
steeling
steepling
forthcoming
reluctance
bricks
brixton
anxiously
switzer
auden
audibly
audacity
cruiser
blurring
bounded
acquies
sneers
sources
##certing
##cerned
restaurateur
angrier
blindly
volumes
recalling
disgustingly
cooler
falters
titanic
emergencies
hundredth
dismissing
shadowy
1510
cartwright
operations
tuning
tunnels
cellar
portfol
failures
retrieval
consultations
instruction
masterpiece
professionals
organisation
boarding
helicopters
squeal
squealed
customs
analyt
bounces
quirking
starve
excelled
deliberation
communicating
lengths
plainly
indicates
versa
emerge
berries
fragment
decoration
passionately
bunsen
flights
survey
adorned
settlement
frequency
192
implied
assassination
interviewed
interviewing
ultimate
unreason
unrecogn
strangle
strangest
uncertainly
digest
facult
elaborates
cuddled
tingling
intimacy
manipulative
baskets
alcoholic
pyjama
sorely
confidential
electro
electrical
connects
buckled
fateful
tourists
westmin
##heartedly
miscon
miscalcul
washcloth
prisoner
weekends
fidgety
fidgeted
spectacle
casualties
graceful
gracefully
fiance
robbed
crawls
politeness
politician
elegantly
scrambles
stuttering
materials
fiddles
##xxxx
disdainfully
superiority
housing
journals
aisles
padding
significance
banana
banker
concealing
snarl
troubling
customary
ruffle
rambles
tinny
obliged
motivations
dominant
stifling
reunite
wheezed
plucks
booties
parenting
comprehens
homopho
oozing
sedative
reminiscing
unnecessarily
mhmm
rotation
vicinity
qualified
elicit
synch
april
ramble
richer
wispy
tolerable
tolerance
scandalous
descend
interactions
memorable
spoonful
honoured
nonchalant
booster
pupillary
beckoning
alternate
##abbled
deployed
phillimore
participation
bravely
fanfics
hooded
hoodie
astron
unimportant
thoughtfulness
paintings
substant
navigated
bulging
broomfield
shrieked
cringe
cringes
punctured
disturbance
surrendered
disagreement
individually
lamps
rudy
rehabil
whistle
concede
unstopp
blandly
conflicted
borrowed
executed
resonated
attentions
endeavour
humiliated
ignorance
triumphant
dublin
tactics
inherently
blazing
interference
guidelines
reflexively
##shshshshshshshsh
fiancée
emphasis
cooperation
pancake
rifling
shrink
muddled
accounted
unconcerned
absorb
loosen
renov
##obic
thirties
chastises
spouted
drummed
vocabulary
disconcerting
bookshelves
penetrate
mimic
mimicked
##oleum
bellowed
applications
precaution
hysterics
galle
kirkland
twirling
heartbreaking
reciprocate
auberg
australia
linoleum
wickedly
ascertain
integrity
leaky
overhear
overheard
screeching
burglaries
mirroring
mortems
butterfly
scribbled
pumpkin
outdoors
contributing
hallucinations
errands
repaired
spectacular
##0o0o0o0o0o0o0o0o0o0o0o0o0o0o0o0o
olliv
pinged
hollers
unicorns
spooked
crammed
obstinate
##0000000000000000
impeccably
confidante
nostalgic
fancied
ricky
rickety
tumult
shaven
lizbeth
intruder
bolth
blatant
blatantly
premises
objective
objectively
admonishes
barrel
preparation
privilege
dismantle
demonstrated
cricket
dingy
misha
zombie
anew
sugars
unnerving
adequate
waltzed
strategically
parano
defensively
sickeningly
goddamn
goosebumps
assembled
ceramic
nappy
uninjured
maneuvered
propriet
folks
perilous
intermitt
monsters
commissioned
affirmed
syllable
dinosaur
encompassing
incomprehensible
mercenary
abnormalities
unsurprisingly
gcses
lamely
nephew
intolerable
crumbs
permeated
reconsid
refreshing
epitaph
grievances
disregard
immobile
bumblebee
lacer
riddled
##ypical
anaesthetic
liberty
chiselled
backstory
aggravating
unkempt
unaccustomed
plunged
arthur
donavan
bloomsbury
harpoon
injustice
undoing
glossy
diligently
spanbrbr
unimaginable
hiccough
stradivarius
inconsequential
wanker
inadequate
shrouded
chwisty
smouldering
aristocr
flailing
righteous
displeased
clerk
monumental
excursion
mediocre
tempest
soulmate
fleetingly
unexplained
ukrainian
moustache
unequivocally
unbeknownst
cumberbatch
daunting
eldest
gingernuts
jittery
kandahar
kilomet
maze
pfft
pseud
pashto
rigged
onslaught
sturdy
asperger
joseph
frivol
frazzled
shrapnel
upbringing
alphabet
hodgeson
unacceptable
unperturbed
plimsolls
afterthought
imprison
impromptu
clavicle
registrar
misericordia
medevac
labyrinth
mistletoe
lukewarm
merriman
switzerland
portfolio
westminster
unstoppable
02
28
35
34
36
3am
48
999
ave
arou
bou
bere
bled
bened
bail
banged
banned
bakers
bumps
bicy
ced
ds
dour
dick
dares
dashing
eb
eet
fb
fame
gh
ga
gat
gape
gamb
gaunt
hub
humble
ib
ira
ipod
jap
jug
jumble
khak
les
las
lly
litt
lud
lash
lurch
lashes
mp
mountain
mhmhmhmhm
munching
nan
nape
nana
nagging
os
oy
oval
pac
pact
pne
pian
prying
pensive
pangs
ramp
riddle
raked
rhet
rumble
rims
rural
rimmed
s4
sate
sided
slot
tinted
tiring
vau
weep
wont
wielding
wiry
wuv
yo
zoo
##hurst
##olf
##oors
##ograph
##cine
##cap
##cles
##cibly
##chet
##kind
##keeping
##ebe
##eys
##rating
##rison
##uge
##uity
##uana
##uisher
##pa
##pense
##pons
##pants
##productive
##don
##dge
##lr
##lest
##va
##vor
##yan
##bar
##bit
##bir
##bable
##bies
##bstone
##mans
##mia
##mund
##tre
##tling
##tled
##tub
##awn
##aurs
##gher
##gage
##win
##wich
##watch
##fun
##fair
##foot
##xus
##zily
##0s
##22
##juana
##ître
##hely
##inarily
thesis
##erning
##erget
##edic
##atable
##atime
tops
topped
toned
##isco
##isms
heter
##oration
thaw
thumping
##asant
##ari
##arked
##ckles
##itect
##itious
##anz
oft
halo
hacked
##lolly
##logn
##loaded
##omile
bef
beel
beading
bends
##utive
##utable
##utely
##eted
##otoxin
herald
##lebone
oncoming
sherlolly
sherlockian
##idery
##idences
stave
stakes
stunt
stale
stashed
##storm
##street
jog
joys
jogged
reced
whiz
forte
forcibly
##send
##urous
##alation
##rospect
##chand
frail
docks
notify
shore
shark
shrew
shagging
shitty
soak
soother
sodding
soppy
lil
lipped
##esthes
mel
##ica
##icum
##icrous
moor
moff
knots
weed
wels
##ilitating
##ackle
##esss
wheels
outer
outland
noxious
chants
chilling
##about
##abra
sult
abund
abhor
league
leggings
conject
conception
sailing
##rice
##artment
exiled
expel
exotic
alleg
allotted
goons
goals
gosh
justification
smother
smudge
dean
depl
deals
deign
della
ifs
##ago
##agm
##agn
##agingly
##agraph
handmade
handgun
teas
teary
tends
teatime
unve
unpl
unth
unison
unaff
uncover
##ulating
##ulsing
thereof
seam
sequ
root
rode
rocks
intox
##rait
##raptured
timothy
lops
##iston
##istical
##isturbed
brim
brad
brun
mane
manhand
oranges
##astly
themes
enact
energet
enraptured
spi
spit
spree
spilt
spices
spasms
caned
caning
cancel
quips
overr
overst
overjo
overload
overflow
overgrown
##ffect
watt
plaint
pond
poker
compos
##pteenth
cox
coast
coach
cogn
coaster
downing
arsen
offs
offend
donation
headline
headaches
##acles
##therin
scut
scant
scap
scrap
scented
scuffed
flinging
props
proport
prodding
willpower
twang
bod
boom
bonds
bologn
blit
blaring
disli
disci
disarr
disposed
dissoci
disarming
remedy
detest
detriment
slang
sliced
slumping
slumps
imari
amen
amiss
ample
amber
cheat
longest
lestrades
##wning
contains
contorted
drows
drooping
foil
hassle
divers
cliff
clattered
clacking
##prise
undergo
underlying
undergoing
underarms
emt
embed
##ibus
kneaded
resided
resented
resumes
peak
firstly
firsthand
tramp
traded
trench
##ipid
##covers
##welyn
cran
crest
cramp
crumbled
appalling
##hesive
surp
surging
adversary
desert
##isecond
##fulness
##quited
attrib
perse
perks
perching
perimeter
wracking
wrinkling
wrenched
wrenching
##olvable
##integr
insin
inserting
insipid
actress
cleans
bedding
bedtime
bedcovers
bloom
caro
carp
carving
lifeline
##izens
particles
partridge
morse
morale
ohhh
##liament
intersection
waiters
flatter
reth
retic
swig
swishing
swims
pawn
paws
snot
snigg
snog
##mos
coursed
laundering
enduring
camel
plexus
setter
setup
minus
vial
vials
talented
guv
gulf
silvery
consent
conspic
bestowed
founded
confine
confuse
confidently
mature
lighthead
instances
instagram
tableau
restart
##hah
seren
server
breathy
readjust
pains
painst
relented
relaying
childlike
playlist
probable
##entionally
warrant
flopping
marylebone
stoho
stocking
infringe
harming
harrison
assert
catboy
caust
compliant
stayin
believable
awry
incision
incoming
invent
invention
invinc
invading
invented
placid
pastor
pastries
placement
skips
skimming
evoke
continuously
concession
distorted
##ailable
entail
accuse
accusing
##spective
irises
farce
recital
recuper
trait
traits
travels
parade
paragraph
parliament
wonderfully
admire
expectant
crimson
roller
bugs
earbud
trio
indoors
counters
lax
deathly
promotion
chests
treason
trepid
trevor
brogue
igniting
ignited
ignition
refo
refill
coupled
##ials
uselessly
secl
coldness
misbe
mismat
askance
##elabra
completion
bagged
##iliation
busied
figment
defiantly
bloodstream
drapes
draught
damning
sentenced
waterfall
greatness
messing
##bington
blacked
fatherly
redemption
menace
violation
magically
shortage
formality
respir
pressured
babbington
extension
comforts
delve
highness
polish
policy
affable
gracing
gravel
tomes
tombstone
forgery
forgiving
calms
calmness
schoolboy
edging
charade
charlie
signaling
signalling
palmed
mushy
suspense
positions
boxers
embarked
pieced
obsessing
victorious
column
favors
##lands
barge
barks
barren
unsus
unsolvable
dinners
murderous
selfie
truths
gross
forebo
shares
leaders
trusts
clothed
profit
accepts
fighter
##orns
opponent
bothers
natured
maître
stomps
dearie
happenstance
oddities
legally
recognizable
exceptions
##arranted
scramble
##shot
thrilling
properties
tenfold
2000
indec
discs
discord
discerning
packs
assumptions
policemen
noticeably
benefits
consternation
freaked
hotels
lime
limb
ridge
##untary
frustrations
classified
##guarded
destined
pinky
sensory
posting
motor
uneart
braces
sharpened
sharpness
raindro
gentler
gentleness
stuffing
crackle
bathtub
artists
shakespeare
suffice
potion
encased
encirc
fastid
stripes
conviction
convuls
unfor
unfur
unfathom
pleases
magnitude
filtering
repay
doubtful
favourable
imposed
imposter
servants
businesses
equipped
equival
claps
musicians
counterproductive
cassidy
superb
superficial
attacking
specialized
miranda
necessities
undid
undead
undressed
undisturbed
psycho
psyche
enterprise
narrowly
satisfactory
paired
teams
appreciatively
sniffling
midsection
inquire
ensued
impossibly
cryst
psychological
psychiatrist
psychotherap
hinted
ridiculously
thinned
thinner
snorting
cleverer
punished
publican
publication
wetness
sandhurst
empath
empire
pinching
pinpoint
roads
splattered
waistband
waistcoat
dancers
flee
fleeing
merlin
merchand
tearful
precariously
trembles
capabilities
grouses
magnussun
vanity
vanilla
ballistic
umpteenth
prays
clarice
wiggled
grandma
management
identical
announcing
declare
declaring
hiatus
pitifully
salv
stamped
chattering
hydro
unwra
unwarranted
belonging
succession
fanning
valentine
estimated
respects
respecting
respectful
respectfully
radiated
smartest
envelop
peeling
commande
existent
similarities
trickled
yellowed
audrey
crue
bounds
faintest
##maid
sneering
motioning
massage
glean
divul
divide
researching
formerly
epile
bearable
blinds
recalls
foolishly
debate
debts
drifts
inhuman
microft
bordens
winking
shadowed
ranging
dutch
##orescent
danish
adjustments
tuna
tunes
measly
dreading
honeycom
portray
portrait
shameful
lunatic
poisoning
poisonous
torturer
professionalism
organization
randomly
darts
fussy
pouts
modicum
betrays
accordingly
squeaked
sociopathic
candelabra
analyse
analysing
abandonment
millions
millisecond
tarn
statistics
observational
pleasantries
consequently
collects
averted
glowed
toasted
flute
systems
renting
fluorescent
calculations
benches
nuis
nugg
nuances
##etera
temperatures
displaying
intellectually
##chers
resisting
tremend
vaccine
sprinkled
sprinkles
withdrawn
unkind
unknow
accessory
transportation
buns
heights
crisply
chocolates
yawns
197
19th
busted
bustled
gulps
dissolve
adamantly
employment
employees
pierced
unreal
unrequited
strangulation
accentuated
collapses
##chester
melodies
knuckled
facet
elaborated
addictive
automatic
characteristic
gutt
gutter
inspire
##marks
##thened
##ribution
requirements
electron
perspiration
tours
##hearted
crouch
reduce
reverent
reverently
overdosed
cradles
permit
devilishly
haunts
processed
reserve
competitive
dumbly
fiery
robes
robotic
expertly
primarily
politicians
elegance
towering
grieved
surrept
awaits
radioed
biased
unpleasantly
architect
phrasing
phrases
garment
cockney
appease
formalities
acknowledges
bellig
spanish
symptom
gauging
##handed
imperf
imperiously
disapprove
brandy
inexor
rustle
rambled
distinctive
indulge
motivate
motivated
documentation
initials
dominated
bonnet
dazz
malice
skeleton
wheeled
wheezes
absurdity
scottish
homosexual
sedan
trophy
reckoned
bolts
humourless
plodded
rota
concepts
savage
qualms
copyright
resembles
decisively
snickers
snickering
burdens
sync
synesthes
elevators
unbearably
congratulate
congratulates
staggering
prints
vehicles
interacting
prickly
nonchalance
whimpering
journalist
achieved
scraped
securely
civilised
derision
deranged
derisive
frederick
knotted
gravest
bulk
bubbled
rasp
raspy
##dog
youthful
shrieks
overtook
trademark
exclusive
unfolding
hypother
24th
dwelling
fuel
lamented
rudely
slos
unbelieving
crooked
conflicts
cherish
panda
innue
selection
selected
resonating
resonates
##aphr
attentively
humiliation
educated
stabilising
dissipating
intimidated
rhythmic
triumphantly
nibbles
helplessness
interfering
swipes
consistently
obscured
mouthing
rattling
muddy
ushering
wobbly
wobbling
indifferent
babysit
2009
optimism
groomed
ankle
chamomile
spouting
queued
drumming
extracted
extracting
ramblings
scrutinizing
jabbing
racket
scroll
monotony
simpler
invaluable
lauriston
compassionate
prescription
hudders
devastating
hysteria
venomous
octave
cornered
squatting
constructive
candlelight
reciprocated
puffy
joints
dollars
robbers
cannon
cannula
comforter
screech
dissect
caresses
infiltrate
reconc
balloon
ripple
ripples
subconsciously
dummy
rationality
slytherin
lifes
mollandra
florida
contracted
specimen
speculated
hallucinating
authenticity
frosted
fulfilling
fulfilled
imperceptible
yelped
##hih
tobias
smackhead
deposited
unhealth
quizzical
daydreaming
cordial
windsor
triggers
refresh
traumatised
vengeful
unrelated
wriggling
rinse
tummy
shaft
converted
overlooked
deterred
admirable
discloses
captivated
privileges
dismantling
virginity
unmistakably
crippled
sinister
wanly
zombies
whimsical
aneur
sauntering
extinguisher
unmarked
scuffle
##ophony
possessive
paranoid
expanding
unforgiving
unforgivable
melodic
melodram
goddamned
##shjwshjwshjwshjwshjwshjwshjwshjw
vivianna
gawked
ireland
tumblr
tiresome
reiterates
sunglasses
worsened
unseen
flounder
incorrect
creaky
syndicate
syndrome
transformation
lycan
lycans
scrubbed
rectangles
phenomenon
phenomenal
bullying
citizens
hustled
olive
thudded
intuition
smudged
manoeuvre
enforcer
werewolf
flask
residue
strummed
meticulously
subsequently
enclosed
variables
contradict
negotiate
sacrificed
uncontrollably
orphanage
unwelcome
cacophony
eloqu
fertility
rabbit
yowled
noisy
abominable
abrasive
consoling
exceedingly
smeared
bristle
quantity
cobra
snuffles
entranced
miraculously
esteem
snowflakes
alfredo
synthes
ecstatic
hypothesis
picnic
conspiratorially
dynamic
dvd
dawson
kiyan
ruthless
sceptical
tirade
tinkering
rewritten
atrocious
chagrin
unavailable
greedily
hasht
clambered
bedraggled
flattened
incongruous
excessive
deflated
suspended
submission
forefinger
postpone
unforeseen
immaculate
declaration
luxurious
stagnant
mathematics
imbecile
cumbria
dankworth
gavin
jingling
lanes
ninja
nikolas
ouch
roused
surname
tousled
valley
##smith
##walla
beverage
ascended
athlet
anchor
intraven
eyeroll
overreact
disinfect
reservations
morosely
relapsed
infestation
infectious
caedwalla
marijuana
parallel
cascading
indirectly
engraved
indefin
superintendent
empowered
hatchway
unreasonable
synchron
rehabilitation
aubergine
tumultuous
paranoia
benedict
fbi
ghastly
gatiss
iraq
japan
llywelyn
ludicrous
pneum
piano
satell
beeline
soothers
moffat
welsh
outlandish
sultry
conjecture
lopsided
brunette
overjoyed
plaintively
composer
scapula
discipl
disarray
embedded
conspicuous
lightheaded
stohohop
infringement
invincible
trepidation
raindrops
unfathomable
equivalent
merchandise
synesthesia
32
47
42
44
60
ail
ari
aun
aha
ailing
aero
ahem
apathetic
bour
bice
bick
bure
bert
bals
bony
bald
bsl
cus
ched
cine
cure
cel
cities
cipher
dé
dense
dyed
dwar
eg
egy
eerie
echel
ff
fiddle
fett
fume
fumble
fumed
fuming
fizz
gn
gou
gout
gag
gem
gel
goof
gushing
gait
hinting
hinges
igu
iero
jen
jut
jur
jang
jord
jub
jagged
jarring
kin
ker
kil
kipping
kara
kittens
lis
lon
lus
lind
lured
leng
lacing
lamb
mare
mcc
mont
mitc
mesh
maud
nay
nude
noooo
oat
oath
oiled
phe
pies
puck
pairs
piv
piling
pension
pounced
pike
rut
rag
rau
rile
rained
riv
rats
rigor
sis
sut
sic
sizable
sooo
tau
tame
taming
ulter
vam
vib
vagu
wad
wong
wager
weeping
wagging
witty
yoo
yum
yield
yarn
yesss
zat
##hic
##hill
##hile
##hound
##oh
##car
##cad
##cation
##cakes
##caly
##kk
##kick
##ecess
##rom
##rot
##rus
##rade
##rons
##rition
##rator
##uates
##uously
##ugged
##passing
##dated
##dles
##dings
##dging
##lity
##lap
##lav
##ltering
##lantic
##vil
##vish
##venty
##vina
##bow
##bour
##bound
##bear
##bble
##ilogue
##ihih
##mie
##mers
##mac
##mph
##tor
##then
##ais
##after
##afe
##nis
##nies
##nip
##nared
##gir
##gingly
##gones
##geren
##wa
##woman
##fern
##force
##falls
##xhall
##88
##12
##40
##ée
##hement
##inction
##inously
##inarian
theater
thefts
##erment
##erently
##atum
##atters
##atonic
toppled
##isc
##isie
heir
heather
hett
##orous
##oriously
##onious
thwart
thumps
##enches
andre
##llis
##llic
##asse
##arsed
##arazz
shedding
##itous
##itiously
##itants
##itutions
##itudes
##any
##anse
##anqu
inad
inert
ingen
ingrat
inordinate
hagg
halves
havoc
##lobe
##loying
##loading
##omically
behest
beaver
beige
##oward
##imatum
##utes
itching
itchy
washer
##otting
herd
hermes
##leen
##idly
staged
stamp
stages
stony
static
stipul
stoop
stooping
stagger
stooped
stubble
stitching
ascend
askew
##sty
##stra
jost
rend
rebo
reaff
rechar
reinf
whiff
forks
forged
##adder
##urable
##urances
##verted
##alk
##ithm
##ithing
withhold
##ooch
atone
atypical
atlantic
##iries
anarch
##rops
##chial
##chbook
frames
fringe
doe
doom
dove
dost
dosed
doses
dogged
dozing
##eeching
buts
##fth
shady
shuck
shined
shushing
shshshshshshshshsh
solo
lilting
myri
##estion
mew
##amm
##ppers
##icon
mop
mogul
knives
weaken
weaved
##ilight
##ilant
upro
upgr
uphold
##esses
##illator
##ustroph
##ieved
outcast
outgoing
outstanding
outdated
##usage
algor
alvina
inton
##ante
nosy
chided
chipped
chores
chords
##aby
##abble
suis
lookout
abo
abject
abdu
abebe
lex
levers
conqu
conund
conceived
congest
sac
sausage
##rily
##rile
##rive
##rict
##rians
exor
exuded
allure
allerg
backtr
smash
smashing
smacking
smearing
smarm
hob
hops
holog
hoste
dears
deleg
deceptive
fagg
worris
##agle
agath
aggr
handprint
una
unle
unad
unass
unfa
unident
unending
unwell
unjust
unres
unnat
unoccupied
unarmed
unguarded
##ules
##ums
therein
thereafter
sewn
seventy
roast
roars
roared
rocket
##raced
feas
feisty
seep
lov
loading
##istible
bred
brides
manger
orch
##unct
##unci
##unities
enforce
likeable
spont
sprin
spurs
splot
sparring
spicy
spacious
spidery
cance
canop
canine
query
quiz
quoted
quarre
quotes
overth
overla
oversh
overlong
howling
##idepress
##idelity
plunge
##igner
poll
pollen
poacher
##pton
timely
codd
coated
coordin
downed
downwards
downcast
mycrofts
arises
artery
##amel
bygones
##ortment
donate
didnt
grating
heady
headm
headte
headlines
headstone
headlights
greens
greying
##plate
##acingly
scor
scone
scaff
scald
scrawled
scooped
##opher
prud
fling
flit
flab
flaring
flaming
flagged
flailed
flags
wells
somber
propping
proposition
prologue
proceeding
needlessly
willed
##ruding
wayward
twilight
boister
boomed
##lmes
##lment
blan
blurs
blubb
blessing
blanks
bladder
muck
mulled
mugging
rightful
disqu
##felt
remov
detrit
slou
slave
slash
slump
slacks
ampl
amary
amended
amnes
amput
amounts
##ulled
longingly
vehement
contag
contusions
draining
drastic
armagn
dialed
dialing
dialog
divert
diatri
diaphr
clust
clips
##pricious
emmie
finances
goodies
##achy
##aching
##achable
##assy
reset
usage
peach
pecked
peasant
trill
trotted
tranqu
phoning
voicing
##cols
cres
cray
crust
criss
crunch
crinkling
crinkle
cranky
adjo
adverse
adrian
adhesive
adorns
takeout
##ggily
prepo
prepping
##quet
callie
perk
perp
perch
peruse
perverse
yearly
yearned
wrinkle
writhing
##olving
inscri
##pecting
activ
lovey
cleo
mindedly
##athers
bloss
##anche
carve
caramel
##activity
##bees
realistic
mayfair
partake
partial
##ucky
morons
morality
newer
newbie
interl
cured
caseload
spells
strayed
##enses
##ensils
##ensitive
##gettable
paed
paxton
pajama
sno
snaking
snores
snipp
sidekick
coursing
courses
elated
endlessly
streaking
streamed
untidy
untoward
heartfelt
womb
nightfall
##sworth
minibus
steering
steams
silken
silky
conserv
quicken
quickest
quickens
foundation
confound
lightweight
install
instrum
institutions
##mostat
restoration
##haven
standby
corps
corres
breatht
software
readied
readings
latching
latte
relate
##ordinated
playtime
hardback
hardwood
wariness
warring
supplying
supplement
woe
stocked
infer
infusing
infront
harb
harmed
assim
assists
assertion
assortment
catering
catnip
catatonic
caved
cajo
capricious
deepens
monkey
##plement
complication
slows
replicate
hurl
awhile
simmer
marred
maroon
invigor
invitations
namely
secondly
pastry
saws
sawyer
skies
skids
skirm
skirting
skirted
quietness
evade
evading
##crossing
continuous
concur
distinction
entailed
accidents
##iah
whisked
irate
ironed
##sites
explicit
##ifically
##ifiable
raving
rapped
raided
reciting
reclaim
droves
humility
traps
traverse
parad
parcel
girly
excal
missive
casing
cashm
regal
regiment
regress
monthly
earl
earpiece
earlobe
tripping
booksh
genes
genetic
unca
uncaring
uncanny
uncomm
compuls
compatible
compartment
promoted
trend
treading
treacle
airways
airlift
viscer
hellish
refuge
planner
straits
mornings
terrors
terrace
misd
misqu
calt
calves
presently
aches
acrid
baggie
baggage
christopher
bespoke
beseeching
medals
meddling
bush
defibr
defiance
##idded
sweets
swelled
collabor
bakerstreet
lessened
waterloo
commend
commiser
greatcoat
lowest
messeng
blackened
redirected
menus
menacingly
passive
informal
informant
nearer
protruding
prett
pretence
pretense
chucked
chucking
abscess
pocketing
occurs
reminders
babbled
extr
wholeheartedly
blueberries
squirm
highs
crev
grapp
grape
graves
gravit
appropri
##ressive
prized
forger
dougl
gunman
cabmen
editions
edmund
edwin
clearer
textbook
textbooks
footwear
charms
charitable
inspected
signet
paperback
burgu
mussed
studiously
studio
antiso
antidepress
subside
afric
afoot
landline
##laimed
apocaly
##ervant
firef
firecr
emptying
numbly
embro
jewels
piecing
heaviness
columb
advances
barry
barley
humanly
brightest
cleaner
safeguard
selfless
selfishness
apologizing
groin
groggily
sharks
strop
growth
guesswork
husk
ranking
labelled
doubting
misty
maisie
transit
interruptions
skinned
crossover
impet
builder
familiarity
mascul
masoch
escorted
smoker
hungrily
nosey
wedged
weddings
##berg
pups
##arral
yards
##ships
##shackle
throng
tenor
tennis
littering
20s
winner
discont
packages
examiner
dreamy
##persed
practiced
practicing
##zelius
utensils
prepares
bowing
constables
freckles
mobiles
pictured
difficulties
hideous
classmate
torrent
effortless
oneshot
gladly
destiny
pinkish
capturing
throwback
unearth
unevent
braille
orderly
carded
cardig
rounding
batch
width
widowed
determines
determining
ahhh
fixated
##cuous
lawful
flowery
devoted
devotion
artistic
suffers
##bservant
experimented
experimental
experimentation
tracked
striving
convicted
convulsing
ambig
ambling
ambush
ambitions
investigative
investigators
##note
tallest
##ificate
annulled
powered
dismayed
discol
discovers
faults
scoffing
equation
chaparral
ruddy
forceful
claustroph
##stein
superst
supervis
director
mirrors
bullies
bullied
undress
trainer
scotch
exclaiming
avoids
avoidance
earshot
narrows
##hetical
##etta
pairing
pairings
appreciating
moody
sleepless
illustri
inquiring
upsetting
exploit
ensnared
flickers
logically
preference
opting
psychologically
immigr
paparazz
globe
gloomy
thicker
alleyways
thinning
cleverness
2015
2012
crowding
jawline
hamper
splin
sweatpants
annoyedly
merit
merged
sobered
favorites
includes
capital
eighty
dimension
tucks
inept
balled
wiggles
grandd
flashlight
hats
hatchet
tongs
separately
declining
reflections
pitiful
salute
subjects
summons
occupation
destroys
authors
taxing
viewed
horrific
estim
estuary
exchanging
respectable
descript
describing
##hmh
innocuous
enveloping
envelopes
knocker
pulsing
steeples
casted
duster
dusting
peel
peeled
issuing
authorised
technical
brian
bribe
ashby
objected
objections
similarity
bomber
introduces
predecess
muscled
martial
surfaces
bounding
boundary
gowns
ribbing
meaningless
acquire
opportunities
ripper
joyous
joyful
sneaked
circumstance
tickled
harmony
lorazep
verify
universal
juan
divine
goodbyes
restaurants
epilogue
scenery
inhab
inhib
inhalation
amusedly
markets
multitude
terrorists
encouragingly
sympath
linger
terminal
tablo
struct
##placeable
opera
cellphone
clinical
tasked
##uminous
retrieving
masterful
ghosting
fusses
linking
modesty
sebby
boards
contrite
graveyard
kaylan
stiffens
produces
incidentally
##meal
toddlers
analyzed
analyzing
abandoning
enthra
enthused
tarmac
departed
cypher
starved
stairway
collectors
oooh
##hammer
telegram
officials
tenth
whirls
fluent
calculate
despairingly
communicated
celebrity
rumour
frighten
attendance
pretends
bombings
versions
alerts
wrappings
essay
vaccin
stirs
feverishly
sprinted
steadier
flowerpot
berk
berate
berzelius
cooling
cooped
transported
bunched
heightened
complexity
critically
adorably
194
macfern
dissatis
implies
implication
assassins
interviews
nauseating
ultimatum
stalk
stalker
digress
poetic
scientifically
heroes
ducks
twelfth
cuttings
pursued
pursuing
pursuits
requirement
western
unlocks
irrevoc
irreplaceable
crouching
redundant
overdue
overdos
##liese
moderately
hostile
hostel
deliveries
russia
websites
clouding
insistent
snatching
uniquely
unpacked
improvised
improbable
vibrations
thunderous
thundercla
stutters
preventing
assassinated
biology
diluted
sanit
tidied
archway
specifics
garb
turtles
tangible
appealed
courtroom
translations
translates
thriller
ominously
##pieces
unneeded
scrubbing
establishing
banish
cowork
clasping
snarls
brandishing
inexper
ruffles
woolen
rehearse
rehearsed
printer
obligated
obligingly
skelet
halts
reunited
wheeze
magazines
germany
rhyme
sedation
tapestry
recklessness
platter
reminisce
practicality
contrasted
millionaire
nuzzled
clingy
eternal
mcgre
plopping
railway
zoe
##matical
thermostat
savor
saviour
resemble
inserts
fairytale
accomplishment
ramc
rammed
ramshackle
wiser
##bags
##sticks
outspoken
rocky
compromising
grammatical
clawing
appointments
interacted
honourable
booze
owes
sippy
sustain
toothy
scrapes
disguised
disguising
resolution
participated
participating
fanfare
deem
astute
intricately
intricacies
underwent
navigating
bulky
plotting
saucer
overtly
restriction
exclus
exclusion
exclamation
electrician
surrendering
econom
pints
sloppy
sangin
whistling
conveys
concedes
interrogator
infuriated
additionally
apologetically
suffocated
sacrifices
tuesdays
cherry
mourned
##fallen
relived
springing
endeavours
honorary
educate
stabilized
160
dubai
flexed
flexes
flexible
hills
hindrance
toeing
beeped
interfered
diagnosing
rehearsals
emphasised
emphasized
bewilderment
handcuffed
unhapp
seventh
oversight
confesses
accounting
symbols
elementary
battled
optimal
sixty
sixties
renal
##riminating
outrank
outraged
spraying
queens
beliefs
squirming
scrutinised
gypsy
scrolled
tantal
vastly
reeled
##rophe
mycie
feathers
enquiring
vendors
snuggle
snuggling
limitations
hysterical
rituals
veterinarian
blissful
glittering
dietician
resorting
guarana
catalogued
cataloguing
505
stems
ascot
integral
chimes
depending
dependent
dissected
maternal
evaluation
reddened
affirmatively
casseroles
skeptically
hypothetical
mischievously
dummies
tackle
tackling
##uccine
insecurity
floral
disrupted
wafted
conspiracy
treasure
crafts
troublesome
cadaver
yelp
yelping
stainless
timidly
spooks
quizzer
proceeds
disinterested
daydreamed
cramps
surmises
swatting
swatted
obstacle
vividly
accusation
protocols
erratic
professionally
traumatized
tantrums
disrespectful
binding
dottie
tensing
neurological
conversed
featured
orchestra
enchanting
overlooking
coaxing
contentedly
intercepted
evacuated
admirer
highlighting
kidnap
2022
independence
disclosed
maddison
utilizes
preparations
reverberated
reverberating
fibre
seductive
tether
shredded
##hernalia
outwardly
conjured
extinguish
smelt
unnerved
unmarried
compressions
contaminated
waltz
infinite
infinitely
patronising
defenses
productivity
emeralds
meltdowns
accomplishments
certified
certificate
categor
category
feroc
nappies
reiterated
foreseeable
hobbles
maneuver
sputtered
floundering
imparts
folk
dictate
dictates
launch
marginally
incorpor
dinosaurs
broadcasting
##jwjwjwjw
diplomatic
fictionalized
##oxoxoxoxoxoxoxoxoxoxoxoxoxoxoxox
mercenaries
legendary
thirsty
ayo
aurors
cuffl
dabbed
hustle
iii
jessie
lava
lavish
pallor
withering
haltingly
intuitive
unoffic
unobservant
unchanging
unattainable
werewolves
plummet
flasks
flavor
dispro
sluggish
sluggishly
peppering
wrestled
retaliation
eliminated
meticulous
entanglement
irresistible
recollection
engulfing
subsequent
unscrew
unbuttoning
exhibit
rummaging
ventilator
sacrificing
astounded
tiptoeing
uncontrollable
unwelcoming
manifested
cubicle
duration
dusky
fervor
geez
jotting
meegeren
nitrogen
obeyed
vitri
summed
lewis
leisurely
dehydrated
dehydration
canada
coyly
grudgingly
gruffly
undertone
perpetrator
insurgent
insurgents
swivelled
infatuated
infatuation
catastroph
catastrophe
metaphor
metaphorically
sketchbook
patterned
paralysed
chronicles
bargain
throttling
repetitive
photographer
spluttered
merciful
radiates
adolescent
mournful
unconventional
hiccuped
orchestrated
kidnapper
kidnappers
mesmerized
inaccuracy
manufacturing
borne
gurgle
mallory
pjs
tartan
hefty
haughtily
herbalist
rendered
repressing
knickers
abortion
unharmed
seethed
bronze
offhandedly
clinked
resilient
stealthily
delirious
mushrooms
condemn
survivors
precipitated
authoritative
exhilarating
restraints
pedestrians
bisexuality
haemorrhaging
unsuccessfully
noncommittal
afters
boulders
northern
pizza
sabot
andrews
ingrained
anneliese
freshen
frenzy
meandered
alicante
chicago
churning
abigail
contingency
alleviate
goblin
orthop
enraged
boasts
disheartening
amalgamation
clayton
resounding
trimester
strutting
courtship
endearment
relinquished
distinguished
paraphernalia
counselling
treacherous
academic
acerbic
eraser
craphat
physiology
penitence
diminish
acquiescence
analytical
misconstru
miscalculation
paddington
astronomical
substantial
galleons
ollivander
bolthole
intermittent
hiccoughs
pseudonym
bouquet
daresay
mhmhmhmhmhmhmhmhm
oyster
rhetor
vauxhall
##function
##iscovered
befudd
shrewd
lilac
unveiling
unthink
unaffected
energetic
overflowing
wattpad
arsenal
bodily
bolognese
detrimental
amenable
drowsiness
crestfallen
carpets
refocus
secluded
misbehave
columnist
unsuspecting
foreboding
naturedly
fastidious
unforgettable
crystall
unwrapped
commandeered
nuisance
guttural
surreptitiously
architecture
inexorably
gravestone
raspberry
hypothermia
innuendo
reconciliation
unhealthy
aneurysm
lanesborough
athletic
intravenous
disinfectant
indefinitely
japanese
discipline
bourbon
bureau
balsamic
cheddar
egypt
echelons
fettuccine
iguana
jangling
jordan
kilter
lindsey
mitchell
maudlin
oatmeal
raucous
taub
ulterior
vaguest
##bourne
hettie
haggard
recharge
reinforce
doggedly
myriad
algorithm
conundrum
hostels
faggot
worrisome
agatha
aggrieved
unassuming
unfaith
unnaturally
enforcement
sprinting
canopy
overshad
headteacher
scaffold
boisterous
removal
detritus
amaryllis
amnesia
armagnac
diatribe
diaphragm
conservatory
instruments
correspond
cashmere
bookshop
airlifted
defibrillator
messenger
douglas
burgundy
antisocial
antidepressants
firecrack
uneventful
supervisor
illustrious
immigrants
paparazzi
lorazepam
thunderclaps
coworkers
mcgregor
2nd
39
41
46
52
53
6th
75
7th
89
8th
8pm
apot
bated
baring
bows
bio
bale
bunk
bores
bacter
binge
bernet
cind
cort
cave
caged
cuffed
crick
dul
dile
dully
dined
dumping
drugging
dwind
dabbled
ek
eu
ere
eard
eup
ebb
eaves
eagle
fion
fain
ful
fisted
fishing
fudge
gin
gim
gal
gast
gurn
gps
gash
gains
gush
gah
gushes
gangs
ghou
gamble
hight
hue
hunch
hunk
hedge
ied
ian
idy
iced
jest
jamb
jazz
jagu
jawn
ken
kitt
kale
kerry
lant
lary
lave
lint
lanc
lars
lush
lones
laces
lousy
luminous
mow
mun
mong
mars
mason
mia
merm
mails
makers
munched
masters
mousy
ny
nas
nom
noo
nook
nary
naz
nines
ov
o0o
osc
oops
owing
pes
pest
pum
pry
pried
pining
pinging
pitches
pumps
pique
pounce
p22
rp
rall
ranc
rating
rins
raged
riff
riled
rumbled
riot
rented
ranting
roul
sow
sill
sout
sere
sated
sledge
sanche
ts
tand
tiff
tattered
tbic
tachy
ub
uter
upped
vou
vag
vand
vig
vort
vents
verm
vatic
votes
wag
wins
witted
wading
wik
xy
yog
zell
zipping
zoned
zipp
zipper
##hort
##hical
##hms
##oen
##oam
##oster
##cou
##cary
##cension
##cases
##cumber
##certed
##keep
##kons
##ef
##eat
##eon
##elf
##rd
##rally
##rene
##raker
##ronym
##sers
##sure
##uite
##ugn
##uaded
##ugging
##pard
##pies
##pool
##pits
##ployed
##pulous
##da
##dly
##ders
##dled
##digg
##dress
##drop
##lam
##lag
##lps
##lborough
##vag
##vine
##vance
##vial
##view
##vety
##volent
##ym
##ban
##bbed
##bility
##iom
##iag
##ived
##iations
##iwork
##ippy
##iazep
##mf
##might
##mus
##mun
##making
##mble
##maker
##macked
##metic
##tin
##avers
##aison
##ausible
##nacle
##niest
##gb
##gi
##gers
##gown
##game
##gled
##gated
##gering
##gues
##gular
##wy
##with
##wave
##wark
##wife
##water
##fs
##fan
##fam
##fare
##fia
##xter
##zod
##57
##38
##31
##ji
##jour
##αν
##ïve
##heist
##hells
##hecary
##inence
##inster
##inette
##erred
##edging
##oury
##ouise
##oufl
##inged
##ndown
##ndip
##ndrous
##athe
##atoo
##atile
##atiously
##atics
topping
token
toaster
##isu
##iscated
heating
heinous
heeled
##oram
##orac
##orial
##orax
##onal
##onents
##onia
##onomy
tha
thorn
##enk
##enstein
##llers
##llous
##llip
##llaneous
##arious
##arcer
##archy
##ariably
shepher
shepard
##itar
##anking
inb
inched
inky
inbox
inordin
inactivity
##rep
##rel
##reed
##reen
##reci
hah
hay
haha
youuu
##loper
##loman
##loaf
##lophone
##omb
##omic
##omitable
bean
begg
bears
bemo
##imating
##imely
##imony
##imacy
ital
itched
##eties
##etical
##etcher
wasps
wastes
##otective
##otically
##otistical
herm
herbs
##lear
##lead
##lect
##lements
onwards
sta
stout
stub
storing
stash
stinger
stalled
stacking
##vey
asp
asth
aspir
asinine
asyl
##station
##stering
joanna
jolting
johoho
jovial
reins
rearr
reposit
relying
reigning
rendering
rekind
whome
whacked
##hnnn
johnnn
##cellaneous
fors
forfeit
##selor
##aders
##advent
##uration
##urial
##urities
##urring
##urrent
##vere
##versit
##ala
##alise
##ctuary
withstand
atë
ather
atheist
##irable
##irmed
anc
anesthetic
anvil
##roken
##chape
##chmen
##chlear
frat
fries
fried
franz
dock
dover
doze
dosage
##eeling
buttered
butts
butcher
notions
notably
notifies
notorious
##akable
##fti
shack
shun
shits
shush
shaw
shamed
shushed
shielding
##herent
soles
sodden
lilt
liken
liaison
nearing
isles
mending
meghan
mews
meowed
mega
##ami
##amide
##amations
##ppost
##icol
##icates
mocks
mohic
weaker
weeds
##iler
##ilating
##iltered
##ilates
##ilts
upmost
upended
uplift
##illes
##illable
##illery
##illingly
##iel
##iella
##iemetic
whewe
outla
outwards
outta
output
outlined
outdone
whats
##usingly
ali
alt
align
aligned
almight
inters
intake
intents
intoned
##outing
nos
nond
nobility
chau
chun
chop
charing
chamb
chanted
chival
chlor
chaste
chalk
##abes
##abase
##abol
##ababes
sue
suv
suction
suwa
aborted
leve
leers
leaking
levered
leinster
congen
conceive
convert
sap
sallow
sauc
##rip
##river
##arten
##artic
##arters
exped
exuding
allies
alluring
backhanded
backdrop
knowles
gos
gods
gobs
goading
gobl
##arding
##indly
dement
delt
deject
dejection
deeds
deceiving
dexter
delect
faff
fauc
fawning
worms
handler
handiwork
teab
teens
teaches
eying
unlo
unab
unem
unqu
unsp
unread
unwise
ungra
unmat
unload
##terated
##ulations
##ulterated
##umption
sem
sew
severed
roy
roid
ross
roped
roaming
##ateurs
##rah
fel
fend
felic
timbre
seeks
seeped
loit
lolly
loath
##ista
##istress
brag
brakes
brained
brunch
broth
bridget
bragging
manual
mania
manilla
##asted
##astical
##uned
##unication
##unami
enh
enam
encro
enabled
likewise
spam
spice
spear
spons
sperm
spraw
spiel
spindly
canary
quint
queu
eyesight
overb
overpr
overpow
overlap
##ffit
##ffles
howl
##andr
##andi
plon
plight
plump
plaster
pledge
plasters
##igated
polo
comical
##ptuous
timelines
cod
coz
coin
colo
cops
cola
coiled
cocking
covent
covet
codes
coppers
cohort
cochlear
downs
downplay
downtime
downfall
downhill
##ourse
##ouses
##ousine
arab
arrow
array
ariella
offset
offender
bypassing
donated
donations
donivan
grudge
grubby
headqu
headlong
##plane
##plicate
##acent
scab
scorn
scope
scrib
scales
scattering
sciences
scouring
##nderable
prided
prices
printing
prism
pratt
priced
flum
flapped
flushing
fletcher
stills
prosec
propels
prospective
##rule
##rude
twidd
twinges
bos
bog
bonding
boded
bobbing
##lings
otherworld
thinker
clown
facebook
blu
blared
blues
blah
bluish
muggles
mufti
##things
righted
disown
diseng
disability
dispos
disposition
displaced
disintegr
##atedly
detour
detained
detection
deterg
detours
slit
slay
slain
slither
slunk
slacking
slinking
imb
imitation
imprint
ammun
amusingly
amateurs
roommates
lestrard
##wness
##ksandr
vehem
contort
contours
drill
drab
drains
drones
drilled
drastically
drabbles
foam
fogg
glinted
armor
armful
armpits
##pez
##people
dived
dioram
clinking
##pring
##pric
##prised
underp
underm
undergone
underfoot
underdog
##lton
mommy
momentum
##ibur
##asso
betrot
resched
resides
reservation
waver
wavered
wailed
wailing
waffles
users
##angle
##angering
pea
peg
peon
tram
trains
troop
trinity
trimmed
trotting
phd
phoen
volle
##colog
##wept
crows
crises
crunched
crinkles
crunching
##issible
##issistic
append
putrid
advert
desol
despond
designer
##ggie
prepped
##quer
attenc
attuned
perked
perish
perusing
percy
perceive
wrench
##oline
insan
inscr
bedlam
##athered
blooming
carouse
carbs
cargo
##actic
##acterial
##beats
caref
careers
##livity
interced
interming
interloper
curio
curators
waitress
lastly
##pocket
##ersonal
retrospect
speck
speckled
strads
swan
swap
swans
swapped
swishes
swamped
swooping
swarmed
workload
workstation
decently
snee
snag
##rowded
elong
elusive
elouise
endings
endgame
endangering
streaks
unto
untr
untimely
shovel
cameos
homely
heartb
heartstr
heartbeats
nothingness
plead
obed
olds
nightgown
##swered
stew
steers
stefan
guise
guitar
conspired
consumption
bestsell
quickening
confide
confiding
confection
confiscated
maturity
matvey
##neck
lightest
instability
openings
restroom
slew
serum
corne
corrupt
corset
corsage
softie
softens
softening
latent
latched
lateness
paints
relive
relish
relied
childishness
childcare
probes
hardware
warfare
supplier
mighty
satin
flops
woah
wondrous
##azed
stoking
infirm
infinity
infernal
personification
harris
harrowing
harbor
eachother
assu
assail
assuring
assisted
asserted
pointy
caps
caval
deepen
compliance
replayed
streetlights
hurst
hurric
believer
aww
awww
sitter
runner
runners
##insic
marine
marrow
marching
marriages
marlborough
incis
incons
incarcer
keening
inventive
invariably
invaders
placate
kitchens
metro
meters
skitt
##ceptible
understandingly
patched
pattering
patric
paternal
##elle
##ellig
concussed
distancing
distribution
district
truck
trudges
##osis
##ossed
entre
entity
entries
entails
entrust
entreat
mustache
##spread
pickpocket
irides
youngster
##ifiers
godsend
recl
recal
recomp
reclining
questionable
trapping
friendships
parish
parlor
##retion
halfhearted
excuu
walled
regains
registers
worlds
essex
##ankment
buys
listlessly
earring
earns
earphones
eases
tripod
indel
indian
indomitable
booking
bookmark
counselor
lapels
genie
genetically
expresses
hearse
uncom
londoners
emoticon
drily
drips
drivers
drizz
compiled
components
##racted
chestnut
trendy
aired
airing
aircraft
broach
visa
visions
refilled
planes
hospitality
chrome
deadweight
strait
solver
boyishly
coup
housebre
terrain
terraced
lottery
misfort
miscellaneous
misadvent
calci
caliber
president
##elstr
spoiling
acd
acids
acutely
christie
christened
medal
medway
##boys
breakup
buses
busking
bushes
busiest
buskers
defy
defied
defiant
warms
draping
tougher
collage
collided
lessen
kinderg
watercol
commer
committ
commenced
commuting
badgering
deducted
deducting
storybook
messes
messily
wording
##ivated
blackout
blackening
shuttered
fatherhood
reds
redness
redder
redef
tights
passers
chopping
chocking
magpies
##icular
coffees
moriarity
schoo
purses
puritan
formula
formulating
respite
respiration
respectively
cupcakes
babble
extend
imagines
bluebell
delving
delaying
honed
honing
honored
squint
squaring
squares
squashed
highchair
##icting
graces
graph
graze
grazed
grazes
graffit
recovers
efficient
pricked
pricking
forgives
perfecting
mute
mutely
gunpow
cabs
cabman
checkered
schoolwork
edible
editor
textures
footing
footprint
foothold
footstep
footfalls
soldi
charger
charmer
paling
##mma
walker
studs
wraith
susanna
susceptible
eyeball
ante
ants
antiqu
antique
antiemetic
submit
afl
apollo
syne
drudg
conversing
firearm
dealers
empties
secretaries
numbed
numbing
singers
singular
embers
embossed
embankment
stepm
obsess
obsessions
advis
advoc
favored
conversationally
baron
barbed
barric
barriers
unspe
unsung
unsolic
unsym
diner
situated
brighton
brighten
brightened
horny
cleaners
selfishly
drawls
apologises
##hod
##hoven
##holes
##hogan
##holmes
gashes
grove
whitechape
forewar
foregone
trusty
clotted
professed
proficient
profiler
sunb
sunken
expanse
oppressive
labours
labeled
normality
doubles
erad
erased
errant
brokenly
mistaking
mistrust
mistreat
nurt
nursed
mafia
maelstr
mahogan
scooting
crave
transce
transpl
translu
oddball
sicker
commenting
controvers
focussing
apparentlyob
##ethy
implo
impasse
sighted
gesticul
linear
masked
masquer
definitively
smoother
smoked
smokes
preferences
hungover
recognisable
elected
puke
pudding
generated
generously
generators
generosity
scrabble
yarder
##shirt
hesitance
##oluted
eventual
panics
mi5
lithe
litre
sweeties
discretion
packman
packaging
hanged
examinations
madonna
dreamer
dreamland
apartments
shirtless
companies
medicals
weakens
limousine
wishful
lockers
confusedly
involuntary
births
picturing
prevailed
fingerprints
belgrav
belatedly
spotless
physique
repelled
revelled
revelling
circular
oneself
pinks
sensibly
captor
captures
investment
moth
motes
testoster
testimony
stickers
braid
brands
brahms
autism
autistic
rainbow
wristwatch
cardi
carding
roundabout
stuffs
stuffy
stuffie
crackshot
bathrobe
##sterous
bathe
battering
batman
fixating
lacks
lawfully
devon
devise
artwork
artillery
firmer
firmness
absolution
worthless
worthwhile
suites
relaxation
cucumber
fastest
stripe
conventionally
convoluted
unfeeling
unfiltered
unfazed
pleaseee
magnus
magnetic
filtered
observer
camoufl
tupper
repairs
governor
governments
brownies
favours
imponderable
provoc
arranging
penal
ruins
rugs
rupert
rundown
forceps
musician
gatherings
pillar
counteract
counterfeit
hateful
supercil
miracles
professors
##inyl
##othorax
undes
unders
undue
undying
brilliantly
bleach
##000
irritability
headedness
keybl
keycard
locating
finalised
teammate
sniffle
sleeved
centered
illicit
midday
inquiry
inquiries
learns
ensuite
pete
peter
login
browse
surgeries
conclude
extravag
cookery
crypt
optional
protectiveness
survives
billion
fitness
fitfully
##fetrich
greenwich
remarking
climax
townhouse
##icipal
requesting
covert
coveralls
micah
golddigg
settings
lunchroom
wetwork
##hyl
sandbags
greetings
empat
employing
pinny
pinpri
pinnacle
splashes
sweatshirt
shifter
varied
variation
luv
merging
caprice
sociable
eighth
wanders
dramas
dramatics
dimens
dimple
dimming
dimpled
diminished
milky
vanqu
vanish
vanishes
vanishing
ineffect
powerless
balling
clarified
clarification
discussions
grandpa
afghanis
loveseat
languidly
pitmans
salad
salinity
stamps
stamens
stammering
stammers
americans
summar
pregnancies
murdering
hype
defends
unwitting
unwillingly
valiantly
##alysis
fortified
fortifying
horrifying
estimate
estelle
weirdo
bosses
strengths
flysmith
harsher
radar
radial
radiant
teenlock
physicality
dusted
peels
peevish
suitcases
boyfriends
##entials
objection
yellows
yellowing
yellowish
concentrations
concentrates
bombed
bombing
crux
introductory
predator
blurb
blurt
blurts
commoner
commonly
boundless
eggno
animation
combine
acquis
acquitted
rien
mystrade
traumas
hmmmm
ticklish
stabs
harmful
motioned
habitable
bands
masses
verified
verifies
behaviors
smooths
gleam
gleaned
juggle
##screen
freezed
hmph
##lothes
blinded
blindness
voluntarily
volatile
speedwell
freaky
convinces
disgustedly
mortality
debilitating
speeches
conditioner
wilder
wilden
accompanies
suspecting
microphones
borders
machinations
multicol
spirals
spiraled
spiraling
spirometer
encourages
lingers
lingerie
##apidated
attractiveness
157
1500
cartel
cartoon
##ienced
transfixed
##hereal
adjustment
operandi
portal
portions
unbidden
cigs
eta
ethereal
lunge
lunches
consultation
masterpieces
torturous
organise
pouty
shyness
modal
modus
medications
medicines
arresting
vulnerabilities
jameson
squeaks
stiffness
stiffening
stresses
contemplation
contemplative
candid
tensely
##ulean
initiate
initiated
sergeants
bounty
bouncer
millenn
tarp
statute
negativity
savings
browsing
snowball
30s
hastened
starry
starred
collarbone
smokey
avert
averse
averts
creeps
fabrics
glower
glowered
margarine
afforded
predictably
hunter
renter
sizeable
mysteriously
facedown
cheerily
calculation
despairing
communion
celebrations
celebrities
benzod
nuance
attendants
picturesque
nicest
niceties
glimmering
oxfam
pitying
verses
##aggle
muffin
glaringly
fingertip
vacant
##hhh
##hhhh
sprint
sprung
sprinkle
computers
berating
berates
unkillable
envis
decorating
transporting
bunches
louise
henchmen
heighten
##itesim
complexities
remarkably
criteria
surveys
adorning
settlements
functioned
198
1999
uppercut
venturing
alcove
feeds
dissuaded
implants
implanted
implausible
performs
pierce
ultra
unreachable
solidly
excellence
facilities
buzzes
addicts
characterization
tinges
tingles
manipulating
breadth
exasperatedly
targets
targeted
targeting
alcoholism
##balance
##marked
whimpers
pursu
eggshells
bangs
buckles
fetching
tourist
villains
villages
westin
frankenstein
credentials
irrepar
irregular
travelers
miscomm
crouches
fantastical
reducing
beef
beekeeping
reversed
reverence
overdressed
overdrive
adoption
notebooks
hooks
napkins
##iquitous
forensically
moonraker
moderate
spectre
spectacul
proclivity
compete
purchases
tailed
tailing
robin
robust
keenly
psychopathy
duplicate
storey
unpack
grassland
primal
influx
influenced
encountering
extraordinarily
falsely
vibrate
vibrates
thundering
thundercl
thunderstorm
surrey
surreal
photographic
cousins
dilapidated
geese
georg
geograph
sanctuary
archly
archives
eyeliner
complimenting
dawning
garlic
housed
pipette
turkey
texas
cockatoo
discharging
applau
translated
translator
lunges
mmmm
padlock
southwark
plaid
coroner
richardson
banking
banister
bankrupt
healer
innermost
snarked
snarks
snarking
obliviousness
lurked
porosity
rustled
ruffling
taunted
taunton
sulked
familial
accountable
indulging
motivating
documentary
bonkers
bonjour
malicious
ukraine
##aterina
mockery
plucked
coincidences
prospects
traditions
unpleasantness
database
gorgeously
ivory
sedate
neutrally
platitudes
bolton
disagreed
reminisces
relenting
relentlessly
rawr
humourlessly
eternally
mcfetrich
mailed
mailbox
rotting
rotten
tipsy
thermos
savoy
qualify
elicits
inconcl
elevated
ficlet
ramifications
wisps
tolerated
ingest
staggers
outsider
##ulsion
gratifying
descends
swoon
stockings
stockinette
memorial
prickles
dangled
festival
owls
toothp
beckon
alternated
chills
##abbling
depicting
copying
scrape
pronoun
projects
emailed
resolutions
participants
persuasion
persuasive
civilization
bafflement
weighs
procedures
rescues
invitingly
gravestones
substitute
developments
adopting
brooms
pigeon
rasped
shrieking
sauer
quartet
vivaldi
exclamations
jefferson
impacted
volunteer
volunteers
mantlepiece
proclaiming
neutralize
disagreeable
lamppost
slowness
##rrr
revelations
whistled
conveying
aggressiveness
sparking
granite
interrogate
interrogates
leaflet
blackmailed
blackmailing
escorts
verbalise
007
cherries
pandering
pandora
hawker
reliving
forearms
executive
recommending
humiliate
stabilizing
intimidate
fashionable
hinder
nibble
vomited
wooing
blaze
insights
interfere
speakerphone
consistency
recipes
reflexes
obscene
etcetera
diagnoses
methodical
clumsiness
cooperating
dignify
##iderate
dodgy
shrill
shrunk
shrunken
muddle
muddling
chessboard
drunkenly
distastefully
babysat
subclav
subtler
2006
loosening
mercies
defeatedly
auld
grooming
wrecked
yanking
##obia
rebuffed
mechanics
mechanism
novelty
chastising
sprays
podiatrist
callouses
hopefulness
misunderstand
disconcerted
penetrating
sexuality
scrutinized
##yyy
thuds
steril
quiver
##ffeur
schemes
flawless
flawlessly
cheapest
simplicity
incapac
invalid
huddling
condescend
condescension
unfairness
stretchers
modestly
wizarding
infuriatingly
gallant
gangly
naïve
rewarding
unnotice
plastering
tweed
blissfully
betaing
snarkily
catalogues
recruits
recruited
presumptuous
spoilers
thrusts
apprehensive
succumbs
gateway
linen
lulled
lullaby
ninety
rueful
ummm
theatrical
##vertently
meatloaf
integrated
chiming
enormity
enlightening
screeched
dissection
underestimate
underestimating
writhe
intertwines
straddle
evaluate
reconstru
saddle
validation
rippled
cowardly
skepticism
karen
piccad
pumpkins
tutted
vigorous
wistfully
##aaaa
##ooooo
unanswered
unravel
brutally
spurred
bobbed
bobble
contributions
tragically
speculate
snidely
patrolling
administr
treasures
cynicism
fulfill
bemusedly
philosophical
14th
cadavers
##odied
hackney
anatomical
anatomically
fracture
holler
deposits
unheard
quizzically
plaguing
proceedings
velvety
glaze
cramping
intervened
windswept
erratically
reproach
establishment
indulgent
disrespecting
cathartic
dye
dental
dentist
fanciful
mingle
ruckus
tenses
tensions
vestige
##rentice
sophist
neurons
intruding
unlit
unlucky
enchant
enchanted
overlook
coaxed
scathingly
deterior
clamping
clammy
premise
premature
evacuate
admonished
deflection
deflecting
disclose
utilized
utilizing
culprits
rebukes
25th
buffered
fibres
hormonal
mishap
nieces
tetrod
waning
tonic
whitney
##cendo
sugababes
lecturing
lectures
lecturer
conjure
sauntered
saunters
lodging
overcomes
overcrowded
compressing
greece
booths
contamination
emanated
financially
adept
infinitesim
patronizing
preserve
profoundly
expanded
impulsively
legitimacy
##iatrists
assembly
cerulean
tumbler
stakeout
##ampered
altercation
hobbits
worsening
manicured
sputtering
polyester
polysty
chewy
resurrect
interminable
launched
religion
monstrous
incessantly
affirms
syllables
uneasiness
autograph
animatedly
incomprehension
reprimanded
stimulate
gymn
rectangular
unsurprised
aura
citrus
dabbing
gcse
gusto
jessica
pears
pearls
rivalry
withered
hazardous
beetle
beethoven
nephews
abstract
concoct
concocting
smudges
factors
agonising
agonizing
maniacal
manoeuvred
plumage
wellington
dispassion
residual
peppers
adapting
adaptation
perceptive
perceptible
perceptibly
permeates
retaliate
decrepit
decompress
decomposition
eliminate
obtained
obtuse
irrespons
reconsider
engulfed
colonials
unscathed
enclosure
petrified
revisit
revisiting
variations
unbuttoned
exhibiting
rummaged
ventilation
astounding
represent
represented
tiptoed
reprogramming
disregarded
immobil
bashful
caci
cubes
dusk
fertil
fervently
meek
odor
obey
vais
##horia
theoretically
theoretical
styrof
shimm
molecular
abomination
lewd
console
unintended
unintellig
uninterested
uninteresting
grudging
disparaged
pertinent
carnival
strengthened
markings
entrée
recreate
compensation
throttle
tormented
repetition
miraculous
hypoder
esteemed
tabletop
snowflake
astonishingly
adolescence
accommodations
unconvin
wreckage
hiccupped
picnics
conspiratorial
administering
orchestrate
interpreted
interpretation
mesmerising
manufactured
hanson
nutter
naughty
penthouse
rumblings
tampered
##cardia
haughty
chunky
sullenly
backfired
hoisting
seething
bronch
sparingly
quarry
prodig
dislocated
disoriented
disorientation
underclothes
resilience
snappy
serenely
unclenching
defaulted
jeopardise
jeopardize
condemned
narcissistic
survivor
precipice
historical
historians
envisioned
scruffy
pronouncement
pedestrian
rebuilding
resurface
resurfaced
reappeared
reappearance
haemorrhage
unsuccessful
noncommittally
axis
aleksandr
austen
dysfunction
icily
mackintosh
pda
sifting
wielded
toppling
hauling
hazelnut
rebellion
rebellious
liberating
moisture
intubation
degrading
unzipped
loafers
bracket
overseas
cocoon
prowess
flippant
disease
disembodied
peacoat
precedent
cursory
corrobor
marvellous
evaporated
rapture
lapsed
bravado
apprehend
apprehended
undetected
unrecognisable
faculty
faculties
electrodes
washcloths
fiancee
comprehensive
homophobic
renovated
crickets
propriety
reconsidering
lacerations
aristocratic
kilometres
frivolous
frivolities
imprisonment
arouse
bereaved
bicycles
cedrick
ebony
gambling
khaki
littlest
rampant
##birds
receding
whizzing
allegations
depleted
unplanned
seamlessly
sequence
intoxicating
bradbury
manhandled
spiked
cognitive
offspring
scuttles
blithely
disliked
insinuating
rethinking
reticence
sniggered
gulfstream
confinement
serenity
readjusting
painstakingly
caustic
earbuds
respiratory
limehouse
unearthing
encircled
convulsions
unfurled
psychotherapist
fleece
salvage
cruelty
divulges
epilepsy
honeycomb
portrayed
tarnished
nuggets
tremendous
unknowingly
facetime
electronic
imperfections
dazzling
sloshing
melodramatic
floundered
eloquently
synthesize
hashtag
overreacting
synchronicity
pneumothorax
satellite
arianna
aunts
aeroplane
bicep
cinema
egotistical
goofy
jutted
karaoke
loner
phelps
puckered
riley
rigorous
suture
vampric
vibey
yummy
yielded
##girl
thwarted
andrea
inadvertently
rendition
uproar
intonation
abducted
congested
sacred
exorbit
hologram
delegated
unleashing
unadulterated
feasible
bredius
spontaneous
splotches
overthinking
coordinates
headmistress
blanked
disqual
slouching
vehemently
cluster
crescendo
adjoining
preposterous
paediatric
snogging
snippets
steamship
installment
breathtakingly
skirmish
concurred
excalibur
regression
uncommon
visceral
extraneous
grappling
african
apocalypse
columbus
barrymore
masculine
cardigan
ambiguity
discoloured
claustrophobic
splintered
estimates
predecessor
inhabitants
inhibitions
tabloids
enthralled
vaccinations
irrevocably
sanitizer
garbage
inexperienced
tantalizing
tethered
ferocity
plummeted
vitriol
aftershave
rhetorical
befuddled
unthinkable
egyptian
unfaithful
scaffolding
firecracker
apothecary
baleful
bacteria
cortis
dilemma
ekaterina
eardrum
euphoria
eavesdro
fiona
gurney
ghouls
idyllic
jaguar
kaleid
lantern
lavender
lancaster
lonesome
municipal
oscar
pesky
p226
roulette
southern
serendip
sledgehammer
sanchez
tsunami
tandem
tbicu
tachycardia
ubiquitous
uterus
vortex
vermeer
vatican
xylophone
zelley
zippered
##keepers
##llipop
inordinately
##lomaniac
asthma
asylum
johohohn
whomever
##versities
atherton
likeness
megalomaniac
mohican
almighty
chauffeur
chunks
chambers
saucers
gobsmacked
goblins
delta
dejectedly
dexterity
delectable
faucet
unemployed
unmatched
felicity
sprawling
quintess
queuing
overprotective
overpowering
headquarters
scribble
otherworldly
disposable
detergent
ammunition
vehemence
betrothed
reschedule
phoenix
##cologist
desolate
despondent
attencion
inscrutable
carousel
heartstrings
stefani
bestseller
hurricane
inconsiderate
entreaty
recompense
kindergarten
gunpowder
susannah
drudgery
unsolicited
unsympathetic
whitechapel
maelstrom
mahogany
translucent
apparentlyobvious
belgravia
testosterone
tupperware
supercilious
extravagant
golddigger
ineffectual
multicolored
benzodiazep
miscommunication
spectacularly
thunderclap
georgian
inconclusive
subclavian
condescendingly
reconstruct
piccadilly
administrative
tetrodotoxin
polystyrene
styrofoam
dysfunctional
08
05
1pm
37
3rd
49
4th
59
57
5am
68
61
93
ak
aa
alo
ach
aest
ads
aided
azz
awards
auss
apes
arous
achy
aileen
awning
bain
bil
bib
bwe
bto
bax
baw
bison
bah
bids
borough
baying
bpm
bacterial
cd
c3
cir
cack
cess
cum
cps
cakes
cents
citing
cues
cages
ccu
cma
canted
cetera
dain
dand
dood
dair
dual
dapp
drugg
dors
dues
dashes
dmi
dotted
ditched
ditching
doodle
dmf
ej
eust
esp
epic
ebbing
epez
fw
fou
fick
fict
fern
fuse
fusion
fug
filt
fumbles
fester
feral
fenn
fidelity
gor
gad
gch
gam
gum
gull
gents
gert
gene
gushed
gael
gerry
gurt
gabbled
gaggle
hed
hick
hib
humb
hier
hilt
hiring
il
jh
jow
jak
jau
jere
jib
jiff
jumbled
jaunt
jests
jigs
ko
ku
ka
kor
kim
kag
kall
kink
kath
kits
lag
lure
lass
lank
lug
lumbered
lathers
lidded
mb
mie
mice
mitt
mdd
mich
mint
mating
mired
marty
mph
mime
nad
nile
nave
nigh
nations
nought
nooo
noodle
og
oom
olf
ora
oint
oats
oaf
ovation
pc
pon
pess
pab
pwe
pmo
pits
pitted
porn
paging
pumped
peeping
piques
pests
poodle
qy
qwe
qws
rhe
ron
rally
rake
rans
rne
rates
rash
rains
rants
rio
raped
ranted
rumin
rme
racked
racks
ridding
rags
rarity
ss
sack
sect
sss
sakes
sans
sord
sash
sizes
sardon
sessions
sizz
sowing
sassy
td
tat
tis
tard
tig
tac
tine
tint
tene
turing
tits
tamed
taper
tinging
tacked
tinkle
uv
vu
vw
vas
vee
vood
vous
vine
vied
vert
vying
vene
vern
vets
vote
vented
vernet
vinyl
wy
wer
wim
wick
wired
wrought
wets
wane
wages
wench
willy
wagon
waggled
xx
xox
yv
yor
zy
zü
zee
zipped
zoning
£1
£2
ép
ét
να
ᴡᴇ
##hk
##hin
##had
##hil
##hang
##hakes
##hives
##hots
##human
##oa
##oz
##ock
##oked
##oss
##octor
##oves
##oqu
##oles
##obe
##ooned
##oples
##oaks
##oji
##cs
##cor
##cas
##cit
##cid
##cage
##cible
##corn
##cards
##cuts
##kit
##ket
##kie
##kha
##kto
##k12
##ew
##ez
##eed
##ele
##eur
##eil
##eps
##elm
##epped
##ehy
##rast
##restr
##rity
##rents
##rined
##rings
##rates
##raining
##rane
##ritten
##sie
##sity
##saur
##siah
##ui
##ua
##uly
##ugs
##uzz
##uited
##pre
##pal
##picked
##prem
##pots
##puts
##picking
##pentine
##dust
##diction
##dotes
##dorous
##driver
##lg
##len
##lar
##last
##lene
##laz
##lical
##listed
##lature
##vo
##vin
##vic
##vited
##ye
##you
##yers
##yclo
##ydon
##bab
##bri
##bars
##bia
##bings
##bons
##bright
##bian
##bones
##bird
##ipl
##iates
##iability
##mn
##mal
##mill
##mart
##mdd
##mint
##mics
##matically
##tch
##tone
##town
##taking
##tily
##thens
##aic
##aise
##aque
##aign
##aids
##actory
##nt
##nest
##nect
##nour
##nose
##nia
##nav
##nier
##named
##nkn
##nui
##gon
##gas
##gow
##gate
##gence
##grow
##gins
##gatory
##gomatic
##guration
##wi
##west
##warty
##witted
##washing
##wait
##walling
##fy
##fed
##fas
##fig
##fling
##fered
##fished
##fident
##faction
##front
##flix
##futable
##qnt
##xy
##xic
##xone
##xist
##94
##84
##19
##zl
##za
##zine
##zoa
##zmdd
##50
##2k12
##jj
##jud
##jective
##48
##400
##ᴅᴀ
##66
##´s
##ôme
##ヮ◕
##ère
##held
##heav
##ino
##inative
##inator
##inium
theft
theore
theward
theres
thesaur
##eres
##erate
##erved
##erals
##ndiced
##aten
##atious
##atose
##atized
##atism
##atinted
##atiable
toed
tock
toad
##isy
##isations
##iscer
##isdiction
hex
heave
hendon
heals
##escript
##escap
##orad
##orne
##ono
##onut
##ongh
##onous
##onne
##onstr
##onentially
##onfident
thine
thug
thunk
thund
thihih
thorac
##ensed
##enance
##enham
##enuous
##asis
##asco
##asha
##asium
##ascible
##asgow
##arent
##army
##argu
##arcom
##arpal
shel
sheff
sheds
shells
sheaf
sheltering
##iturn
##itance
##itory
##ittered
##itates
##itution
##ituted
##ano
##anim
##anched
##anley
##anora
inan
inve
inse
inver
inau
inco
inching
inured
inland
inwards
inescap
##reg
##reated
##rels
##rection
##reative
##reaper
##recy
havers
halit
##lover
##lown
##lowe
##lollipop
##lodorous
##loxone
##ombe
##omial
##ominator
bev
bele
bead
beak
belf
##lyte
##lysis
##imation
##imously
##utney
itiner
##ete
##etr
##ething
##etown
##etable
##ettered
##etween
##etted
##etics
##eterm
##etah
wasp
##otid
##otty
##otto
##otional
##otics
##otected
##otoman
##otypical
herded
##lept
##lection
##lectic
onloo
##lds
sherry
sherlocked
sherlockkk
sherlock2k12
thats
##iders
##idled
##idol
##idering
##idenced
stoo
stere
stig
staking
stint
stank
starr
stools
stalls
staid
stanz
stanley
aster
asap
ashy
aspen
##ayle
##sted
##stic
##store
##sters
##stop
##stered
##stool
##stead
##stones
##strid
##struction
##stuffs
##stilts
##strip
josiah
rew
reind
reop
reared
rearing
reub
reaw
reigned
renders
reocc
rehyd
reopened
receptive
reintegr
reggie
wha
whoo
whips
whump
whooping
whipl
##cefully
##cells
foray
##sels
##enta
##entious
##entions
##entines
##entimes
##uri
##urge
##urped
##urger
##urration
##veringly
##alt
##alas
##alent
##alment
##alves
##cturn
##ctively
##ooves
##oopy
atoned
atkin
atroc
##irs
##irder
##irism
anom
anton
anec
analog
anarchy
##roint
##robing
##ropy
##roads
##rospective
##roverted
##rolment
##chs
##chain
##chup
##chlor
fris
fraid
franch
frills
dol
dopp
doss
dosing
##eem
##eeee
butt
butto
notus
notable
notches
notified
notification
notoriously
notwith
##akin
##akfast
shri
shying
shins
shamb
shroud
shushes
shatters
shrops
##herence
##herlollipop
soared
soaks
sofas
lig
lilly
livable
neon
necked
nemes
##estru
##estial
##estinal
##estepped
isabell
mein
meld
mellow
melc
mewed
mephone
megan
##amine
##amated
##amused
##aments
##amley
##amisu
##pphire
##pparent
##icone
##iciously
##icingly
##icative
##icature
##iciest
##icato
mopped
movers
moors
moses
molasses
##ighted
##ighters
##ightreaper
knits
wean
welf
weave
weirder
##ilful
##ilier
##ilisk
##ilitate
upto
upbeat
uploaded
upheav
##illation
##illating
##ooked
wheed
outli
outlines
outlining
outfits
whattt
alac
althe
alpha
aligning
almond
intel
introspect
##anth
##antine
##antics
##antages
nov
nohoho
nocturn
chit
chur
chum
chides
chime
chuffs
chipper
chutney
##abre
##abling
##abond
sund
suave
supers
sums
suda
suprem
abc
abide
abusing
abysm
abuzz
##roubled
lem
lend
lease
lending
levering
leaks
levity
conven
conge
conne
conceiving
sag
sail
saps
sapped
sapphire
##rift
##rived
##ricts
##arthy
exes
exac
expe
exten
exto
exceeded
exposes
exod
exerted
allusion
alliter
alluding
allhall
backped
backfire
knowlton
gond
goad
gobb
justifies
##erset
smashes
smacks
hose
hoard
holed
hovers
hoists
hoisted
deity
deport
deposed
deceived
fae
fag
fait
fazed
##agus
##agul
##agull
##agree
##agents
aglow
agend
agencies
handpicked
mollyco
teal
tech
tendon
teething
##lfish
##lform
eyy
ung
unort
unapp
unmas
unenc
unbr
ungr
unpar
unrem
ungo
unites
unsec
uncrossing
unrestr
unnamed
unargu
unamused
##owness
##ulent
##ulpt
##ulac
##ulsed
##ulinium
##umination
##umatism
##venir
##venged
##rylic
seas
sender
seared
seating
seque
seagull
rover
roving
roiled
roamed
roger
rochester
##ateful
##rail
##ractor
##racing
##racy
##raphy
feign
##allible
##allows
##alleled
timber
timetable
loll
loft
lobe
loped
lolls
loads
looted
lodg
loathed
losers
loathe
##istration
brash
brunt
brute
brimmed
brooch
bramley
manly
manning
mankind
mangled
##erella
##eremon
##ereffect
##unes
##unished
##unto
##untle
enroll
enlist
enunci
enlisted
ennui
enrolment
likeliest
thenightreaper
spa
spies
spaced
spines
spasm
spiced
sporad
canula
quid
quad
quill
quip
quitting
quaint
quench
queries
quelling
quills
eyeshot
overwork
overste
overcoming
overwr
overweight
overrule
overhang
##ffled
##fficking
howled
##inked
##anders
watting
watered
plated
plumb
plug
plait
plugged
plugging
pledging
tooling
##igate
##igree
##igrant
##igraphy
poise
poets
poign
combed
comics
composes
comedy
complement
comprised
comatose
##pture
##ptism
##ptials
timeless
timeframe
cole
coped
coined
coals
cocks
copse
coca
coarse
cozily
coordinated
coherent
coagul
someplace
downy
downtown
##ilee
getaway
gettin
moreover
##ourable
##ousé
ark
arter
arches
offends
wholes
bystand
evened
##ortion
##peridol
donnav
wanton
##icky
grue
grits
graying
gritty
grotty
grooves
##ddling
header
headrest
greedy
##plume
##plussed
##acable
##acial
##acarpal
##arel
scop
scents
scarring
scampered
sculpt
##vedigg
##opic
##opus
pranks
##ounded
flakes
flitting
flings
flirted
flamm
sombre
somerset
prost
prose
probe
propo
propos
propel
proposing
proposes
propelling
wills
##rue
##rup
twat
twig
twigs
boats
bohem
clostrid
faceless
##iends
bludge
mucking
##thro
##thorne
##ssing
##ssal
##ssil
##sskin
disk
disjo
disuse
dispose
disinc
disasso
disobe
disfig
disrobing
doormat
##feiting
##feeding
breather
breply
breaker
breeding
brewed
nevermind
llalves
remade
remiss
remission
##aired
detach
detachment
sla
slate
slaught
slits
slipper
slinked
imped
imitated
imprints
imitate
implement
imbalance
imitates
amend
amuses
amiably
amicably
amends
cheery
chequ
cheaper
cheater
cheesy
cheetah
daylights
##wny
veined
veiled
vexed
vegas
contend
contusion
contraction
contrived
droned
drats
drooped
dredge
droopy
foe
folly
foist
foli
foetal
fostering
fossil
glide
glitch
gloriously
glasgow
glacial
leto
lettering
armpit
hereunto
##peakers
diver
dives
diction
diaper
dialling
diapers
diabol
dialysis
clause
clair
clang
clash
clamp
clashing
clanging
clanking
##printing
##proof
undergar
underarm
underweight
undercut
underhanded
underthings
##ltage
emts
emulate
emoji
##ibre
##ibal
##ibels
finer
finance
goody
goodships
whyever
reside
residing
resists
resorted
wavers
opium
opaque
usable
usurped
pew
pend
pegs
peals
peaked
pews
pebble
peoples
##dynam
whereup
whereabout
gottle
trite
trump
trashed
trilled
trenches
botulinium
helper
pharm
phobic
voided
volc
voltage
##coal
##coft
##coast
startles
##weg
##weed
##webs
##wealth
crate
crane
cringing
crashes
craned
##issy
##issance
##issions
madeline
appli
applies
apprentice
apparel
##ilyn
##ema
##emly
##dspeakers
telltale
advers
adhere
adlers
adalas
adherence
adrift
desole
desertion
deserted
##isely
##iseptic
preened
premed
preempt
preoccup
premon
preamble
##quity
##quered
calligraphy
attach
attainable
percei
peramb
perky
perusal
yearning
wring
##olar
##olation
##olite
##olence
##olately
##olished
yeses
insolent
insensitive
insatiable
bitingly
lovebirds
minder
minding
mindless
mindset
bedframe
bedspread
blot
bloomed
carc
carb
caret
carves
carriers
carriages
carafe
carotid
caricature
##active
##izations
##eployed
##bel
##belt
realities
realtor
realisations
pulley
mores
morator
moronic
morsel
morris
newport
newton
newcom
##ounting
careened
carelessness
##arsis
##liers
##lique
##liptic
interc
interim
interse
intercom
curving
curren
curdle
waitor
flatsh
flattery
flatlining
##pox
retch
retched
retires
retrain
retelling
retribution
retraining
retracing
spew
specks
spelling
spews
stringing
stragg
strongh
strenuous
##ensing
##ensus
##ensated
##ensibly
##lower
swab
swish
swamp
swapping
swats
swords
workmates
worktop
##ciate
behaves
decomm
decamped
decanter
decrees
decibels
paving
paved
snared
snug
snipping
snaked
snuffed
snitch
sideboard
sidelines
##moor
##moxed
##rowed
courte
elation
elude
eludes
elsworth
##nedict
endor
endurance
untied
untold
untrust
untangle
untreated
untroubled
untrue
homey
heartrate
obese
nighted
nightwear
nightstead
giver
ministers
ministr
rosin
steven
steered
steals
stewed
stepparent
silencing
silicone
consolation
consensus
founding
conform
confides
mata
matrim
smallish
smallpox
##neyed
lighted
lightened
lighthearted
##ulted
instilled
installed
instalment
opener
openness
tablecloth
restoring
sleight
famished
##haha
standoff
servers
serpentine
idol
idiom
corp
coral
correction
breathily
continent
continually
continents
##erty
readiness
laters
latches
painters
relayed
relatable
childmind
childbir
##uprof
playin
players
playmates
probing
harden
hardens
hardwor
warped
supplic
suppliers
satiate
flop
floss
floats
wok
wosie
##presso
eyeline
stopp
stoked
stoically
infants
infidelity
inflection
infallible
hairdress
personified
minutest
hari
harried
harassed
##ietes
##ieties
bodygu
assent
assets
assurances
cater
cattle
catboys
catlover
sorcer
soreness
caes
capp
cape
caho
cavity
##plements
complicate
compliantly
replen
replay
replays
replaying
replica
streetlight
hurling
hurled
##ngoscope
togetherness
await
awestru
closets
sites
simpy
simulac
runway
rungs
hadnt
marin
marital
marches
marring
marvels
marlowe
marilyn
follower
incont
incriminating
incensed
##condition
kel
kelly
##embered
invasive
nameless
nameplate
seconded
pasty
pastime
sawing
methyl
metacarpal
skid
skive
skidded
thankyou
quiets
quietest
quietening
evolved
evolution
evolving
eviscer
evidenced
patching
patty
patented
patrons
##ella
##ellini
continuity
concili
concurs
concisely
distillation
trudging
##osp
##osarcom
##osurge
entice
enticing
enticingly
accented
acclim
mustered
mustering
floored
whisking
picky
pickle
daysack
irons
ironing
irvin
irascible
anglo
angling
angering
anguished
##noy
##nolds
farming
faraway
windbre
windex
explor
explored
##ifier
godson
godaw
raft
raps
raved
rapping
recite
recount
recites
recounts
recesses
recurring
humank
humerous
hummus
traject
trafficking
parried
paragon
parole
admires
admissions
expectancy
laughable
laughlin
missy
missus
misspelling
casket
wallow
wallend
wallflow
region
regrou
regency
regina
regulation
registration
crims
worldly
espresso
buh
bugg
bugged
bugging
listing
earphone
earrings
tribe
tricked
tricking
trifling
experie
allowances
indis
indist
indeterm
bookmarks
bookmarked
bookstore
##onsolately
counsel
wronged
wrongness
lapped
lapping
genial
genetics
deathbed
mothering
uncur
uncuff
uncooper
uncalled
unclaimed
uncreative
unceremon
additions
dries
dribb
compass
compact
component
##ractive
promote
chester
treaded
treads
airy
airily
airline
airfield
airbor
airstrip
broc
visually
viscous
hopelessness
refine
refute
planets
hospitalisation
deadline
stranded
solic
solicit
forwarding
##iality
furry
furthe
hurtling
hurtled
##itsi
secures
secrecy
housework
housemaster
termed
colds
lotus
calista
calibre
presences
presumed
prescient
despise
despises
spock
completes
acco
acronym
acrylic
bagging
besotted
mediter
throes
throbbed
busily
busker
defences
bloodhound
hues
cutest
throats
throaty
sweltering
draft
dracul
drafts
toug
colliding
collision
collectively
croak
croons
croydon
damaging
damsel
sentencing
##cussed
kinder
kindest
waterstones
commute
badges
lows
storylines
messaging
worded
##ivided
##ivety
blacking
blackberry
blackstone
blacksmith
differentiate
shutdown
fathers
redire
redoub
rediscovered
redeem
redeployed
menial
menaced
menacing
mummies
passages
passively
choco
informative
nearness
##uthor
prote
funniest
funerals
pretentious
viola
violated
violetta
magenta
fuller
##heads
threaded
threading
chucks
coffins
absences
pocketkn
shotgun
occured
shortest
shortened
shortcom
shortcut
format
formulated
formulate
seater
seatbelt
exacting
##phins
extric
extends
imaginable
blueberry
delusion
delays
deluded
honking
squish
squirt
squaw
squashing
squabbles
cheekiness
highlights
affli
affinity
affixed
readying
creations
creators
gracious
grapes
grazing
grappled
gravedigg
topical
##imentary
##zziness
tommy
tomboy
approxim
layered
layering
forgo
gunpoint
schoolgirl
edwards
texture
footed
footwork
footman
footfall
footstool
charcoal
inspects
signaled
signify
signifying
##lemic
buries
burped
burrowed
palsy
palmer
musk
musing
musically
muscular
daddies
susurration
antiseptic
subur
subte
submer
submar
subvoc
subjective
syc
syring
syrian
drudge
demure
demolished
aval
avian
foodstuffs
fireman
ringlets
ringtone
ruby
freelance
boxer
singer
singeing
ember
embassy
emblaz
jelly
stepmother
heavies
jackets
colony
advise
advantages
221a
loudest
ordinarily
apparatus
barium
barbar
barmaid
briefest
unsm
unsav
unsuit
unshake
unsatis
unshaven
diners
livelihood
brightening
murderously
horns
cleanly
cleansed
donovon
drawl
learner
sadistic
hallmarks
blankness
##hoe
##hoot
gaslight
gaslights
gasoline
groping
whitehall
forebear
relieving
relieves
##ampment
strove
strolls
##enclature
cornerstone
acceptingly
tyre
requiring
suggestive
##ermined
expired
expunge
expenses
exponentially
milner
milton
milestones
oppose
violinists
brainwork
brainpower
braincells
fella
felled
labored
labels
laboured
labelling
problematic
doubly
eris
ergo
erotic
erotoman
fearfully
expectedly
clothesline
birf
birming
payed
payback
malodorous
dresses
dressings
stomp
##ologists
knobs
dearer
transph
transient
transcript
oddity
sicken
screwing
crossfire
crossroads
controls
impose
impaled
impolite
sighting
lineage
masher
mashed
mastering
fairies
fairhaven
esche
notecards
prefers
positioning
legwork
eleanora
wedded
generic
generate
scrabbles
pathways
hesitations
hesitancy
eventful
burners
panned
panicky
thrashes
curricul
shocker
mikha
tenners
particulate
particulars
touché
lithely
204
winchester
pubs
discred
disciple
discrep
disconsolately
stomachs
madly
madame
madwoman
dreamlike
practised
practices
beneficial
benevolent
uttering
bowtie
constitute
ceasing
weakest
weakened
weakening
limbo
ridged
urn
urine
grimy
agreements
preview
prevalent
fingerprinting
presentations
belitt
belittle
universities
spotty
spotlight
physics
physiatrists
hideout
classy
classically
##ritis
torre
reveling
boredly
circuit
circuited
fucks
fuckboy
oneshots
pinkie
sensations
sensual
sensuous
soldierly
stupider
stupidest
motel
testified
testify
##affey
uneaten
criminally
criminologist
braver
braided
branded
brachial
injure
detailing
autonom
autonomy
raincoat
rainstorm
##mann
wristband
norbert
receipt
looping
weighted
weightless
##bral
relevance
conduc
bathing
batty
nonexist
widow
widest
widens
widows
ahlg
lackeys
souvenir
lawyers
##grad
devour
devious
devils
devoured
devouring
devotional
artfully
artworks
inclinations
sufficed
##boards
duel
pots
potting
potage
encrust
encumbered
encyclo
encampment
scarper
britvic
cube
fastens
strips
strived
strife
convention
conventional
conventions
unfast
unfav
unfriend
unfettered
pleasing
pleasurable
magnet
magnets
filmed
##ricated
ambled
ambiance
ambitious
camilla
tuxed
woodland
##ishings
reprodu
reproductive
repulsed
doubtless
tallied
annul
annual
favouring
mikey
powders
dismembered
discolor
listeners
businessmen
equate
equations
equals
equator
equality
equitable
penance
penne
rupture
resultant
counterfeiting
cassandra
nodes
superno
specialised
specialists
messagebody
angelfish
professions
basin
baser
basilisk
culmin
necessitated
necessitate
undis
undoes
undiscovered
unduly
undivided
shopkeepers
supports
supporters
supportively
blearily
blends
bleeds
reassess
reassurances
irritate
beatrice
impressions
enteric
afternoons
keyring
keyhole
keypad
keychain
wakefulness
##ompensated
locum
locals
finalize
dryer
shrubb
appreciates
moodily
shallows
shallower
centim
centred
denim
denies
denote
deniability
denominator
illog
illumination
mids
midwife
inquietes
fondest
exploits
exploited
ensures
ensuing
flicks
petworth
handlebars
amazon
amazingly
opposing
opposites
jacob
conclusive
concludes
extraction
colourless
cooker
cryptic
protects
protector
psychologist
psychiatric
psychologists
immun
immunity
immigrant
billions
fitter
remarried
nonplussed
sarnie
townsend
partygo
tasty
vampirism
thicket
thickened
cluttering
clockwork
cityscape
daisy
judged
thinly
thinnest
revised
revision
revived
revulsion
succour
cleverest
causeway
punishing
puncture
crowbar
publicity
sands
sandbox
empires
pinchers
hammond
hampton
roadside
splay
splashed
splinted
splaying
splatter
##riety
songy
waistcoast
treaty
treatise
responsive
flecks
lugging
##ashedly
wearer
wearied
chemise
chemotherap
majestic
lounged
merge
merits
merrier
merriment
mainstream
sobering
sobriety
sexist
sexily
sexually
precarious
capability
socio
groused
grouped
protestations
antheas
drugtaking
dimmed
dimethy
icebox
inebri
ballet
ballad
thumbed
embraces
healthiest
healthcare
grandson
grandeur
intelligible
churchyard
flashy
identification
identifiers
skillfully
journeys
journeyed
lovesick
declan
skyline
reflective
reflects
hike
keepsakes
pitied
pitching
pitiable
salty
stamina
##gerua
summers
summation
summarily
summoning
occupies
hyde
hygi
sampled
taxed
viewer
viewing
tottering
defeats
unwashed
unwritten
valour
valentines
forties
fortnight
esther
bossing
descriptions
magician
deliciously
delicacy
landlords
flyer
harshest
harshness
radical
##hmallows
smarten
smartly
smartphone
russells
annoyances
dulling
fifties
fifteenth
steeled
steels
concentric
peeing
abruptness
orgasm
commander
commandments
angelos
authorisation
technicians
overwhelmingly
brig
brianna
tosser
objecting
explanatory
anticipates
anticipatory
ceilinged
audition
audio
audacious
crude
introductions
prediction
predatory
##ubbers
blurting
surfing
surfacing
commonplace
commonwealth
ribcage
ribbons
populations
popcorn
acquiring
ripe
##maids
joyously
mystical
delighting
delightfully
unsurely
prefabricated
circumvent
circumspect
soured
sourly
sourced
stabbings
curtse
curtained
warningly
harmlessly
harmonious
exhaustedly
bandit
bandits
bandaging
lorry
massively
verse
veruc
verifying
veranda
costumes
smoothie
juices
juiciest
ketchup
##inaire
divided
researchers
epide
heatwave
bearer
sparkly
blindingly
voluntary
volkons
freaks
freakish
mortg
mortars
mortification
debit
debased
conditioning
balances
fields
jerky
titling
titled
wilde
wildest
wildfire
emerges
instinctually
microsle
bordering
marker
markers
netting
netflix
spiralled
spiralling
elbaf
ideally
ideals
terrorized
shadowing
sleeveless
##ocaine
monitored
15th
carts
carted
cartwhe
cartridge
dutiful
taboo
schedules
floods
occurring
##issioned
orient
operate
operator
randy
drowns
cellist
dreads
vulgar
warden
##alds
##aldehy
shamefully
shamelessly
unbl
unbuck
unburd
clinically
assuredly
cauter
cautions
taser
sternal
sternum
sternness
twitter
twitchy
contempor
mastery
tortellini
organize
organizing
organizations
dartmoor
fusilier
modified
##aunted
offerings
contrition
gravelly
disappointedly
squel
stiffen
framework
arseholes
production
sociopathy
originals
contemplates
contemplatively
custard
candidates
toddled
toddles
initiat
analysed
analyzes
bouncers
millie
sibilates
stats
statues
statistically
negatively
departing
browser
quirky
snowy
snowfall
autopsied
30th
cycl
cycles
hasten
lidocaine
heaves
starvation
collarbones
collections
satisfy
satisfies
creeper
creeped
fabulous
glowering
ooooooo
ooooh
toasts
toasting
excelling
develops
teleport
femur
femoral
flutters
affordable
threateningly
predicting
predictions
daren
hunching
hunted
calculates
communications
benign
bennedict
civility
nuptials
ruled
rumor
rumpel
frightfully
skulls
niche
stonewalling
weathered
glimmered
oblique
obliquity
indications
indicator
bombarding
milder
mildew
##strained
graduate
graduating
graduates
muffle
muffling
aimless
vacations
intentioned
seasoned
seasonings
mannerisms
sprang
springs
spritely
sprouting
emerging
steadies
instantaneous
gardener
binomial
venous
venues
fragrance
fragrant
envious
decorum
accessories
adventurer
adventurous
fabrication
fabricated
bunting
bunking
germans
loudspeakers
crisper
surveil
surveilling
availability
##shshsh
frequented
tracksuit
busts
bustles
gulping
macabre
venting
ventures
dissim
dissolved
dissolving
implored
implacable
clientele
performer
priorit
interviewer
interviewers
maintains
nauseated
nauseates
unrec
solider
solidified
##hmhmh
praising
##lux
knuckle
facilitating
facilitate
scientists
buzzz
broader
dampen
dampened
dampening
temptations
cuddly
tingled
heroine
manipulations
inspires
inspiring
tornado
gaydar
pytch
elbowed
elbowing
buckling
fetucc
mantra
tourti
credits
irregul
irrefutable
avenging
fantôme
beehives
prisoners
diagnose
permissible
devilish
fuzziness
jamais
washington
novelists
hostility
hostages
specters
procre
procure
procured
casualty
graceless
discomforts
dumbest
fiasco
fishy
lumpy
tailcoat
##ventilating
fridays
buttery
liquor
liquids
robber
cloudless
insistently
reputed
reputations
psychopathic
duly
duet
duets
unpunished
primly
primaver
proofing
proofread
influences
influencing
improving
encounters
extraordinaire
naval
towia
thundered
wheelchairs
detecting
detector
materialising
achingly
dilate
dilating
dilator
tidal
tidbit
shapely
##amental
intensifying
loyalties
spatter
archaic
phrased
eyelid
garishly
garnered
garlands
northwest
piping
tangy
tangling
goddess
cocky
appeases
sorrows
sorrowful
membership
translating
specifications
lymph
lunging
mmmmm
paddles
bellstaff
spanning
plaits
scrupulous
snapshot
courageous
coronary
innocents
withdrawing
banished
cowed
cowering
dedicate
dedicating
lifetimes
conceivable
fellows
sported
imperious
imperial
impervious
clasp
pricey
edwardian
brandished
brickies
spiritual
averagely
eruption
lurching
lurches
rusted
ponderings
oblige
obliges
obligations
obligatory
distinctively
accountability
animalistic
documentaries
187
18th
1888
1840
bonner
dazedly
malnut
malnour
maliciously
restraining
skew
hogwarty
coincide
slimy
slimmer
handsomely
distressing
distressingly
humorous
humorless
absurdly
illuminates
evelyn
homles
hometown
ivy
oof
ooze
trop
trod
trolls
tapes
##balls
recklessly
forbids
forbidding
soda
neutering
isolate
isolating
disagrees
reminisced
confrontational
squarely
millionth
fatigues
clings
mcdon
plots
zooming
zoomed
sherlocksarmy
savouring
savoury
boldness
resembling
syncode
accomplice
accomplishing
congratulating
congratulatory
aprons
buds
budged
budging
campaign
laziness
ramrod
ricoc
wisest
tolerates
outsmart
outsiders
gratified
scandals
breastfeeding
interactive
swooning
stockp
accuracy
regulate
regulated
regulations
memorised
honouring
prickle
escapades
freedoms
disturbingly
journalists
festering
festooned
furnish
furnishings
frets
fretful
fretted
pupil
sustenance
beware
bewitched
beckons
alternatively
succeeding
depot
deploy
copied
scraps
scrawny
pronunci
projecting
projector
minimize
persuaded
persuading
gentlemenian
114
cerebral
derided
deeming
mmh
##putable
astutely
knotting
intricacy
breech
remnant
pointlessness
gravy
navigation
navigator
bulb
bulge
bulged
broomstick
pigtails
tiered
tikto
##iarism
licenced
overtone
overtake
overtaking
overture
overtaken
overtired
overturned
blasting
waxy
restricting
incompatible
comparable
judgmental
punctual
punctuation
punctuate
measurement
measurements
proclaims
comprehending
comprehended
rhythms
neutralized
243
ecg
eclectic
ecliptic
laments
lameness
rudi
rudimentary
slob
sloping
toughness
##rrrr
##uishable
forkful
conveyed
granola
dishevelment
crooks
carpeted
interrogating
interrogations
sidewalks
conflicting
leafy
leafed
cashiers
blackmailer
torsos
suffocation
verbalising
hawve
hawkins
hawthorne
stimulated
reliant
reliably
selective
selecting
septic
resonate
resonance
endeavors
educates
educational
psychosis
stabilised
intimidation
nibbled
pissing
vomiting
woolly
inheritance
soapy
blazed
slurring
insightful
interferes
playfulness
assaulted
reflexive
obscen
petulance
environmental
##shshshshshshsh
methodically
clumsier
emphasizing
cooperative
dashboard
dignified
eeg
narrated
pancras
ritz
rattles
rigidly
##green
##gregated
##erbated
toxin
heatedly
##urgical
shrinking
handcuff
overslept
grayson
drunkenness
wobbles
distasteful
indifferently
unconstrained
territorial
absorbing
babysitt
palpate
palpated
palpitations
subtlet
symbolize
2008
2005
2007
2004
loosens
illnesses
optimistically
mercury
mercurial
saltwater
basketball
jargon
nestling
otp
sectioned
wreak
wreath
yanks
mechanisms
outrun
spouts
cloakroom
miniature
concerto
earnings
squirms
squirrels
engineering
unwillingness
scrutinising
thermal
40s
cauz
gyrom
jabs
jabbed
lsm
mimics
mimicking
##oidable
reek
gossips
hollowed
deftness
feathered
enquiry
script
blessings
vendetta
diamonds
applicable
insufficient
insufferably
snuggles
fingernail
monotonous
prescribe
prescriptions
huddle
maiden
impassivity
devastate
devastation
venomously
wizardry
scandalised
individuality
178
17th
fizzing
gangster
naive
naloxone
naivety
octopus
racheal
veterans
wriggle
##organ
fruitlessly
uptake
spiteful
toolbox
toolroll
toolkit
tweak
twirls
disorders
remorseful
remorselessly
glittered
glittery
glistened
resorts
confidants
cornfl
catalogue
mutterings
thrusting
apprehensions
apprehensively
succumbing
unwaveringly
essentials
reciprocal
reciprocating
linens
nineties
nineteenth
ocs
ocd
peddle
pedigree
puffer
renew
renewal
tanner
tannoy
youtub
stemmed
dollar
depended
dependable
unprotected
enlightens
overhears
poems
comfiest
coconut
disrespected
resentfully
tragedies
writhed
intertwining
straddled
wolfe
wolfish
wolfishly
evalu
reconnect
reconstruction
affirmation
rippling
idealistic
neglect
neighbourhoods
cowardice
traditionalist
hypotension
bewilderedly
scribbles
awarded
baul
baited
baptism
dumgb
gears
karate
osteosarcom
tutu
tutoring
tackled
tackles
vowels
##ostomy
insecurities
beasts
rearview
forests
anonymity
unanimously
unravels
brutality
florist
florence
disrupts
disruption
contracts
contribute
contributed
armrests
crowned
##intoshes
begrudge
begrudging
speculations
conspiracies
inflicting
deadpan
figurines
squadcar
advancement
crafting
cravings
frosty
hauntingly
cauldrons
1438
29th
actors
cultured
moue
hackers
hackles
beaucou
assemble
reynolds
unheeding
plagiarism
flirtatiously
disgruntle
surmise
perplexing
swathes
cordially
accusations
engrossing
ambassadors
sneaky
traumatise
faithfulness
inexplicable
indulgently
farewells
unpredictability
cctvs
1384
bindings
catharsis
doting
funded
fundamental
hounds
piroz
thirds
neurotoxin
neurosurge
molds
molded
intrude
lemonade
febrile
enchants
coaxes
prolonging
bollocking
disreputable
clamps
clamoring
pecker
peckish
periphery
intercepts
sniping
ironically
uncontained
deflected
deflects
highlighted
barreling
screwdriver
impulses
2021
2023
2024
disbelievingly
reverberates
googled
toxicology
rebuilt
demonstrating
demonstrative
outbursts
aquatinted
buffer
buffeted
drear
dregs
jetlag
seduce
seductively
tetchy
tireless
##ogenic
tonne
whiteness
shooed
shooing
shreds
conjuring
extinguished
uncoordinated
unmarred
overconfident
overcompensated
compression
scurvy
scuffing
scuffling
##ophagus
brewery
contaminate
contaminating
dizzying
strategic
strategies
silhouetted
farmers
escalate
escalation
escalated
escalating
escalators
cemented
postscript
hyperaware
hyperventilating
divorcing
cylindrical
guaranteed
assembling
tattoos
21st
categorically
ferried
ferris
gawking
migrated
tumblers
##folk
heedless
thrive
injecting
stinky
foresee
foreseen
chirping
hobbies
worship
uninvited
unseemly
sputters
cobbled
lethar
launching
marginal
metallurgical
ravencla
inducing
tersely
antagonised
antagonising
antagonize
barrage
stroller
encompass
encompassed
unfocussed
illegally
dishwater
diploma
diplomat
succeeds
reprimands
stimuli
stimulating
recommendation
recommendations
rectangle
eccentricity
eccentricities
ayant
auror
cinch
thugs
thudding
##struck
charts
abstaining
abstinence
concocted
##aguered
unchart
unchanged
unruffled
unattended
unattractive
intolerably
maniacally
enforcing
grinds
grinding
flavours
foxhound
peppered
wrestling
strumming
swimmer
decreased
decreasing
elimination
obtain
painkiller
entangled
entanglements
trekked
refreshed
recollected
recollections
colonies
colonial
conducted
revisions
epitome
contradiction
negotiations
exhibited
rummage
grievous
representing
tiptoe
debriefing
reprogrammed
reprogrammer
aloofness
manifestation
26th
31st
bashō
bumpy
bumblebees
duress
doughnut
dorman
dormant
lacquered
nitrile
odour
odors
riddance
rabbits
teeming
vaulting
vitam
vilein
wigs
yowl
yayyy
zeroed
theorised
bethany
styled
shinny
shimmer
shimmered
liberties
mythical
mythology
noisily
choreograph
chiseled
abrasion
exceeds
smuggling
smuggled
smuggler
unkel
uninterestedly
bratty
bristling
orbit
canadian
canadians
quantify
cobwebs
donavon
undertake
ownership
pertained
perpetual
carnation
carnage
strengthen
strengthens
pleahah
sketchy
recreating
recreational
humidity
paralysis
compensate
compensated
checkouts
bargaining
discouraged
injustices
photographing
photographed
splutters
mercifully
radiator
balmoral
criticising
criticizes
accommodated
diligent
disapprovingly
1895
1892
synthetic
unimaginative
ecstatically
mournfully
executioner
outrageous
hiccup
stradivari
insecurely
dynamics
inaccurate
inaccuracies
inconsequentially
27th
dvds
dumpster
erectile
gigantic
kiwi
mandy
mandates
mandatory
nutrition
pentagon
razor
singsong
tiramisu
virtually
virtues
hefted
##leganger
reinst
reinvent
rebel
rebelled
rebelling
rewrite
##rodite
knickkn
alban
album
albums
chagrined
aborts
backfires
backfiring
unavoidable
quarried
quarantine
cosmos
contemptuously
undercurrent
adjour
adjective
adjacent
bedridden
flattens
snappish
inflating
inflamm
unclench
delirium
suspenders
submitted
forefront
discernible
unforeseeable
narcotic
narcotics
immaculately
townspeople
townsfolk
declarations
authoritarian
disgraceful
blindfolded
exhilaration
envisioning
platforms
mathematical
splendidly
imbeciles
aftereffect
austere
boulder
gorey
iciness
moulded
mackintoshes
ostrich
ostensibly
pdzmdd
pilates
pilfered
pizzicato
rouge
rougher
sidestepped
##ndolyn
topple
ingrate
befriended
befriending
rejoin
rejoins
forlornly
meandering
alicia
intrusion
intrusive
intrinsic
intubate
abigayle
contingent
degrade
brackish
ornate
ornament
oversee
plumeplume
cocoa
arcade
arsonist
flippantly
diseases
dispatch
dispatched
amalgamated
cursive
relinquishing
evaporating
distrustful
ravishing
raptor
parapet
indigo
indigestion
counsellor
treadmill
treachery
chronicle
chronological
academy
acerbically
accelerate
accelerated
hornets
erasers
craphats
physiological
bravest
penitent
superheroes
mirthless
undetermined
illustrations
illustrator
revolt
revolted
revolutionary
punishments
hydric
hydrated
acquiesce
fragmentation
1928
1920
unrecognizable
digestive
electrolyte
miscalculated
##xxxxxxxx
comprehension
homophobia
renovations
disconcertingly
galleon
##0o0o0o0o0o0o0o0o0o0o0o0o0o0o0o0o0o0o0o0o0o0o0o0o0o0o0o0o0o0o0o0o
ollivanders
##00000000000000000000000000000000
boltholes
proprietor
intermittently
reconsidered
disregarding
laceration
aristocrat
kilometers
pseudo
imprisoned
aroused
bereft
bicycle
gaily
gaeil
gambler
ibuprof
jugular
khakis
littmann
mpreg
osas
pacified
yohou
##paedic
##ponsive
heteroch
heterosexual
oftentimes
haloperidol
heralded
whizzed
melbourne
abundant
abundance
abhorred
smothering
deanery
bradmore
enacting
overrun
overridden
overstayed
overstatement
proportion
proportions
blitz
dislikes
dissociating
diversion
diversity
surpass
surpasses
attribute
persevered
persevere
cleansing
reticent
snottily
snigger
restarting
serenading
readjusted
painstaking
asserts
caustically
inventory
recuperate
traitors
mismatched
mismatching
respirator
leadership
bothersome
2000s
indecency
unearthed
empathize
empathizes
hydrolysis
cruelly
gleaning
epileptic
blindsided
honeycombs
milliseconds
tarnish
nugget
tremendously
1973
unrealistic
electronics
belligerent
belligerently
dazzle
savagely
babysitter
devastatingly
lifesaver
smackheads
refreshments
##shjwshjwshjwshjwshjwshjwshjwshjwshjwshjwshjwshjwshjwshjwshjwshjw
eloquent
hashtags
pneumonia
satellites
ailment
ailments
bickering
bertie
cussing
cela
celestial
décor
dwarfs
fizzled
gnashing
gouges
gems
jenkins
jurors
jurisdiction
jubilant
jubilee
kerchief
lisa
lusk
luscious
lengthened
lengthen
mccaffey
montague
oaths
pivots
riveting
sicily
waddling
heirlo
inertia
ingenuity
ingratiating
stipulation
jostled
rebooted
reaffirmed
withholding
anarchists
shucked
shshshshshshshshshshsh
shshshshshshshshshshshshshshshsh
mewl
mewls
upgrade
aboard
abode
conquered
allergic
allergies
backtracked
unauthor
unidentified
unidentifiable
unresolved
unresponsive
lovat
bridesmaid
bridesmaids
orchids
##unctival
cancelled
cancelling
quarrels
overlaid
overlapped
coddling
scorned
scalding
prudent
flabberg
blubbering
amplified
amplifying
amputated
contagion
contagious
dialogue
dialogues
tranquility
crayon
crayons
crusted
crisscrossing
crunchy
inscribed
inscription
blossomed
interlude
interlacing
inferior
harbored
cajoling
invigorated
ravings
reclaiming
paradox
compulsory
compartmentalise
misdirected
misdiag
misquoted
caltrop
caltrops
collaboration
commiserate
prettiest
crevice
crevices
grapevine
gravitas
gravitated
appropriately
fireflies
firefighters
huskily
impetus
masochist
discontent
unearthly
superstition
superstitious
granddaughter
structures
1945
1942
dissatisfied
dissatisfaction
overdosing
overdoses
hostelry
skeletal
skeletons
exclusively
exclusivity
economic
economics
1602
unhappily
categorised
categorized
cufflink
cufflinks
unofficial
unofficially
unscrewed
catastrophic
sabotage
orthopa
orthopedic
misconstrued
misconstruing
mhmhmhmhmhmhmhmhmhmhmh
crystallized
bureaucr
reinforcements
overshadowed
overshadowing
bunker
cinderella
dulwich
dwindling
eulogy
fulbright
gastroint
hunkered
kitties
laryngoscope
marshmallows
mermaids
nyc
nomenclature
noose
nooks
nazis
pumm
rpath
rallies
rancid
rinses
vagabond
vandal
vigilant
wagered
wiki
yogurt
##enko
shepherd
inbetween
beggars
bemoaned
italics
##leader
stapling
aspiration
aspirations
rearranged
repositioned
rekindled
johnnnnn
forsaken
ancestry
shackles
shunned
shawl
outlawed
aliens
interspersed
nosiness
nondescript
chopsticks
chivalrous
chloride
levelly
expedient
gospel
demented
faffing
teabags
unloads
unabashedly
unquestion
unspooled
unreadable
ungracefully
semantics
loitering
enhance
enamoured
encroaching
spearmint
sponsor
overblown
plonked
cozier
colossal
coveted
prattled
flummoxed
twiddling
boswell
disengaged
slayer
imbued
diorama
underpaid
undermining
volleying
appendage
advertising
perishables
insanity
carefree
intercede
heartbroken
obediently
##necke
cornelius
infirmary
assuage
assailant
capsule
cavalry
incisors
incarceration
skittish
patricia
pickpocketed
iridescent
reclusive
recalcit
excuuuse
indelible
housebreaking
misadventures
calcium
watercolours
commercial
redefine
graffiti
soldiering
wraithlike
antiquities
aflame
stepmom
advisor
advocate
barricade
unspeakable
##hodox
grovelling
forewarned
eradicating
mistreatment
nurture
transcends
transplant
controversial
gesticulating
masquerading
magnusson
camouflaged
provocative
penalty
undesirable
keyblades
petechial
empathetically
pinprick
dimensions
vanquished
summarised
unwittingly
eggnog
acquisitions
1579
candidate
millennia
envisaged
pursuers
irreparable
geographical
applauded
mmmmh
ingested
toothpaste
pronounces
lampposts
gallantry
unnoticeable
reproachfully
sophisticated
enchantment
deteriorating
infinitesimal
autographs
gymnasium
dispassionately
irresponsible
meekly
shimmery
unintelligent
hypodermic
unconvincing
bronchitis
prodigy
exorbitant
disqualified
paediatrician
cortisol
eardrums
eavesdropping
kaleidoscope
serendipity
quintessentially
benzodiazepines
aaah
aloft
achoo
aussi
arousal
baines
biblical
bweakfast
btoday
baxter
circus
cesspool
dairy
dapper
druggie
euston
epeznkn
fwiends
fickle
fictions
fugitive
filtration
gchq
gamma
gertrude
geneva
gaelic
jaundiced
jeremy
jibe
jiffy
jigsaw
kaas
koritsi
kimono
kagoul
kalluri
kathleen
mbbs
mieux
martyr
navel
ogling
oomph
olfactory
ointment
pessim
pablo
qyug
qwendolyn
qwsqnt
rheumatism
rneq
sector
ssssskin
sordid
sardonically
td12
tiger
taciturn
voodoo
vinegar
veneer
wyvern
wernecke
xxdust
yvonne
zygomatic
zürich
£1000
épousé
été
##hkis
##ossa
##ranean
##ᴅᴀʏ
theorem
thewardoctor
thunders
thihihis
thoracostomy
sheffield
invective
inverness
inauguration
inescapable
haversack
halitosis
beleaguered
belfast
itinerary
onlookers
stanza
##stiltskin
reuben
reawak
reintegration
whiplash
atkinson
atrocities
antonio
anecdotes
franchise
doppleganger
dossier
buttocks
notwithstanding
shrilly
shropshire
nemesis
isabella
melcombe
welfare
upheaval
outlived
alacrity
althea
introspection
nocturnal
superseded
supreme
connell
exacerbated
expending
extenuating
extolling
exodus
allhallows
agenda
mollycoddling
##lformamide
unorthodox
unappreci
unencumbered
ungrateful
unparalleled
ungodly
unsecured
unrestrained
sequels
lodgings
enunciated
overstepping
poignant
coagulant
wholesome
bystanders
scoping
propofol
proposals
bohemian
clostridium
disjointed
disinclined
disobey
slaughtered
cheques
dictionary
diabolical
undergarments
goodshipsherlollipop
whereupon
whereabouts
preemptive
premonition
perceives
perambulation
moratorium
newcomers
currency
stronghold
decommissioned
ministrations
matrimony
childminder
childbirth
hardworking
supplication
hairdresser
bodyguards
sorcerer
cahoots
awestruck
simulacrum
eviscerate
conciliatory
acclimatized
godawful
humankind
trajectory
wallflower
reginald
indeterminate
uncooperative
unceremoniously
dribbling
airborne
furthest
mediterranean
dracula
pocketknife
shortcomings
gravediggers
subtext
submerged
submarine
subvocally
syringes
emblazoned
barbarossa
unshakeable
erotomania
birmingham
mikhail
norberton
conducive
nonexistent
ahlgren
encrusted
encyclopaedic
unfriendly
tuxedo
discoloration
culminating
shrubbery
partygoers
dimethylformamide
inebriated
hygiene
veruca
volkonsky
microsleeps
elbafo
##aldehyde
unburdened
contemporaries
initiatives
bennedictholmes
rumpelstiltskin
pytchley
fetuccini
tourtière
irregulars
primavera
malnutrition
malnourished
mcdonalds
pronunciation
tiktok
gyromit
dumgbomb
osteosarcoma
beaucoup
disgruntlement
pirozhkis
ravenclaw
foxhounds
choreography
pleahahase
knickknacks
inflammation
aftereffects
pdzmddt
gaeilgerua
ibuprofen
flabbergasted
gastrointestinal
recalcitrant
xxdustnight
